#include "model.h"

alignas(8) const unsigned char g_model[] = {
0x1c, 0x00, 0x00, 0x00, 0x54, 0x46, 0x4c, 0x33, 0x14, 0x00, 0x20, 0x00, 
0x1c, 0x00, 0x18, 0x00, 0x14, 0x00, 0x10, 0x00, 0x0c, 0x00, 0x00, 0x00, 
0x08, 0x00, 0x04, 0x00, 0x14, 0x00, 0x00, 0x00, 0x1c, 0x00, 0x00, 0x00, 
0x8c, 0x00, 0x00, 0x00, 0xe4, 0x00, 0x00, 0x00, 0xd8, 0x24, 0x00, 0x00, 
0xe8, 0x24, 0x00, 0x00, 0x74, 0x41, 0x00, 0x00, 0x03, 0x00, 0x00, 0x00, 
0x01, 0x00, 0x00, 0x00, 0x04, 0x00, 0x00, 0x00, 0x42, 0xd6, 0xff, 0xff, 
0x0c, 0x00, 0x00, 0x00, 0x1c, 0x00, 0x00, 0x00, 0x3c, 0x00, 0x00, 0x00, 
0x0f, 0x00, 0x00, 0x00, 0x73, 0x65, 0x72, 0x76, 0x69, 0x6e, 0x67, 0x5f, 
0x64, 0x65, 0x66, 0x61, 0x75, 0x6c, 0x74, 0x00, 0x01, 0x00, 0x00, 0x00, 
0x04, 0x00, 0x00, 0x00, 0x90, 0xff, 0xff, 0xff, 0x38, 0x00, 0x00, 0x00, 
0x04, 0x00, 0x00, 0x00, 0x08, 0x00, 0x00, 0x00, 0x6f, 0x75, 0x74, 0x70, 
0x75, 0x74, 0x5f, 0x30, 0x00, 0x00, 0x00, 0x00, 0x01, 0x00, 0x00, 0x00, 
0x04, 0x00, 0x00, 0x00, 0x4e, 0xd6, 0xff, 0xff, 0x04, 0x00, 0x00, 0x00, 
0x0f, 0x00, 0x00, 0x00, 0x46, 0x6c, 0x61, 0x74, 0x74, 0x65, 0x6e, 0x65, 
0x64, 0x5f, 0x49, 0x6e, 0x70, 0x75, 0x74, 0x00, 0x02, 0x00, 0x00, 0x00, 
0x34, 0x00, 0x00, 0x00, 0x04, 0x00, 0x00, 0x00, 0xdc, 0xff, 0xff, 0xff, 
0x3b, 0x00, 0x00, 0x00, 0x04, 0x00, 0x00, 0x00, 0x13, 0x00, 0x00, 0x00, 
0x43, 0x4f, 0x4e, 0x56, 0x45, 0x52, 0x53, 0x49, 0x4f, 0x4e, 0x5f, 0x4d, 
0x45, 0x54, 0x41, 0x44, 0x41, 0x54, 0x41, 0x00, 0x08, 0x00, 0x0c, 0x00, 
0x08, 0x00, 0x04, 0x00, 0x08, 0x00, 0x00, 0x00, 0x3a, 0x00, 0x00, 0x00, 
0x04, 0x00, 0x00, 0x00, 0x13, 0x00, 0x00, 0x00, 0x6d, 0x69, 0x6e, 0x5f, 
0x72, 0x75, 0x6e, 0x74, 0x69, 0x6d, 0x65, 0x5f, 0x76, 0x65, 0x72, 0x73, 
0x69, 0x6f, 0x6e, 0x00, 0x3c, 0x00, 0x00, 0x00, 0xf0, 0x23, 0x00, 0x00, 
0xe8, 0x23, 0x00, 0x00, 0x78, 0x23, 0x00, 0x00, 0x68, 0x1b, 0x00, 0x00, 
0x58, 0x17, 0x00, 0x00, 0x48, 0x14, 0x00, 0x00, 0x38, 0x04, 0x00, 0x00, 
0xa8, 0x03, 0x00, 0x00, 0x98, 0x02, 0x00, 0x00, 0x84, 0x02, 0x00, 0x00, 
0x6c, 0x02, 0x00, 0x00, 0x54, 0x02, 0x00, 0x00, 0x3c, 0x02, 0x00, 0x00, 
0x24, 0x02, 0x00, 0x00, 0x0c, 0x02, 0x00, 0x00, 0xf4, 0x01, 0x00, 0x00, 
0xdc, 0x01, 0x00, 0x00, 0xd4, 0x01, 0x00, 0x00, 0xcc, 0x01, 0x00, 0x00, 
0xc4, 0x01, 0x00, 0x00, 0xbc, 0x01, 0x00, 0x00, 0xb4, 0x01, 0x00, 0x00, 
0xac, 0x01, 0x00, 0x00, 0xa4, 0x01, 0x00, 0x00, 0x9c, 0x01, 0x00, 0x00, 
0x94, 0x01, 0x00, 0x00, 0x8c, 0x01, 0x00, 0x00, 0x84, 0x01, 0x00, 0x00, 
0x7c, 0x01, 0x00, 0x00, 0x74, 0x01, 0x00, 0x00, 0x6c, 0x01, 0x00, 0x00, 
0x64, 0x01, 0x00, 0x00, 0x5c, 0x01, 0x00, 0x00, 0x54, 0x01, 0x00, 0x00, 
0x4c, 0x01, 0x00, 0x00, 0x44, 0x01, 0x00, 0x00, 0x3c, 0x01, 0x00, 0x00, 
0x34, 0x01, 0x00, 0x00, 0x2c, 0x01, 0x00, 0x00, 0x24, 0x01, 0x00, 0x00, 
0x1c, 0x01, 0x00, 0x00, 0x14, 0x01, 0x00, 0x00, 0x0c, 0x01, 0x00, 0x00, 
0x04, 0x01, 0x00, 0x00, 0xfc, 0x00, 0x00, 0x00, 0xf4, 0x00, 0x00, 0x00, 
0xec, 0x00, 0x00, 0x00, 0xe4, 0x00, 0x00, 0x00, 0xdc, 0x00, 0x00, 0x00, 
0xd4, 0x00, 0x00, 0x00, 0xcc, 0x00, 0x00, 0x00, 0xc4, 0x00, 0x00, 0x00, 
0xbc, 0x00, 0x00, 0x00, 0xb4, 0x00, 0x00, 0x00, 0xac, 0x00, 0x00, 0x00, 
0xa4, 0x00, 0x00, 0x00, 0x9c, 0x00, 0x00, 0x00, 0x94, 0x00, 0x00, 0x00, 
0x74, 0x00, 0x00, 0x00, 0x04, 0x00, 0x00, 0x00, 0xba, 0xd7, 0xff, 0xff, 
0x04, 0x00, 0x00, 0x00, 0x60, 0x00, 0x00, 0x00, 0x10, 0x00, 0x00, 0x00, 
0x00, 0x00, 0x00, 0x00, 0x08, 0x00, 0x0e, 0x00, 0x08, 0x00, 0x04, 0x00, 
0x08, 0x00, 0x00, 0x00, 0x10, 0x00, 0x00, 0x00, 0x24, 0x00, 0x00, 0x00, 
0x00, 0x00, 0x06, 0x00, 0x08, 0x00, 0x04, 0x00, 0x06, 0x00, 0x00, 0x00, 
0x04, 0x00, 0x00, 0x00, 0x00, 0x00, 0x00, 0x00, 0x0c, 0x00, 0x18, 0x00, 
0x14, 0x00, 0x10, 0x00, 0x0c, 0x00, 0x04, 0x00, 0x0c, 0x00, 0x00, 0x00, 
0x94, 0x02, 0xd7, 0x5a, 0x74, 0xc6, 0xc1, 0xe1, 0x02, 0x00, 0x00, 0x00, 
0x02, 0x00, 0x00, 0x00, 0x04, 0x00, 0x00, 0x00, 0x06, 0x00, 0x00, 0x00, 
0x32, 0x2e, 0x31, 0x38, 0x2e, 0x30, 0x00, 0x00, 0x26, 0xd8, 0xff, 0xff, 
0x04, 0x00, 0x00, 0x00, 0x10, 0x00, 0x00, 0x00, 0x31, 0x2e, 0x31, 0x34, 
0x2e, 0x30, 0x00, 0x00, 0x00, 0x00, 0x00, 0x00, 0x00, 0x00, 0x00, 0x00, 
0x80, 0xc0, 0xff, 0xff, 0x84, 0xc0, 0xff, 0xff, 0x88, 0xc0, 0xff, 0xff, 
0x8c, 0xc0, 0xff, 0xff, 0x90, 0xc0, 0xff, 0xff, 0x94, 0xc0, 0xff, 0xff, 
0x98, 0xc0, 0xff, 0xff, 0x9c, 0xc0, 0xff, 0xff, 0xa0, 0xc0, 0xff, 0xff, 
0xa4, 0xc0, 0xff, 0xff, 0xa8, 0xc0, 0xff, 0xff, 0xac, 0xc0, 0xff, 0xff, 
0xb0, 0xc0, 0xff, 0xff, 0xb4, 0xc0, 0xff, 0xff, 0xb8, 0xc0, 0xff, 0xff, 
0xbc, 0xc0, 0xff, 0xff, 0xc0, 0xc0, 0xff, 0xff, 0xc4, 0xc0, 0xff, 0xff, 
0xc8, 0xc0, 0xff, 0xff, 0xcc, 0xc0, 0xff, 0xff, 0xd0, 0xc0, 0xff, 0xff, 
0xd4, 0xc0, 0xff, 0xff, 0xd8, 0xc0, 0xff, 0xff, 0xdc, 0xc0, 0xff, 0xff, 
0xe0, 0xc0, 0xff, 0xff, 0xe4, 0xc0, 0xff, 0xff, 0xe8, 0xc0, 0xff, 0xff, 
0xec, 0xc0, 0xff, 0xff, 0xf0, 0xc0, 0xff, 0xff, 0xf4, 0xc0, 0xff, 0xff, 
0xf8, 0xc0, 0xff, 0xff, 0xfc, 0xc0, 0xff, 0xff, 0x00, 0xc1, 0xff, 0xff, 
0x04, 0xc1, 0xff, 0xff, 0x08, 0xc1, 0xff, 0xff, 0x0c, 0xc1, 0xff, 0xff, 
0x10, 0xc1, 0xff, 0xff, 0x14, 0xc1, 0xff, 0xff, 0x18, 0xc1, 0xff, 0xff, 
0x1c, 0xc1, 0xff, 0xff, 0x20, 0xc1, 0xff, 0xff, 0xe6, 0xd8, 0xff, 0xff, 
0x04, 0x00, 0x00, 0x00, 0x08, 0x00, 0x00, 0x00, 0xff, 0xff, 0xff, 0xff, 
0x03, 0x00, 0x00, 0x00, 0xfa, 0xd8, 0xff, 0xff, 0x04, 0x00, 0x00, 0x00, 
0x08, 0x00, 0x00, 0x00, 0x00, 0x00, 0x00, 0x00, 0x03, 0x00, 0x00, 0x00, 
0x0e, 0xd9, 0xff, 0xff, 0x04, 0x00, 0x00, 0x00, 0x08, 0x00, 0x00, 0x00, 
0x00, 0x00, 0x00, 0x00, 0x00, 0x00, 0x00, 0x00, 0x22, 0xd9, 0xff, 0xff, 
0x04, 0x00, 0x00, 0x00, 0x08, 0x00, 0x00, 0x00, 0xff, 0xff, 0xff, 0xff, 
0x08, 0x00, 0x00, 0x00, 0x36, 0xd9, 0xff, 0xff, 0x04, 0x00, 0x00, 0x00, 
0x08, 0x00, 0x00, 0x00, 0x00, 0x00, 0x00, 0x00, 0x18, 0x00, 0x00, 0x00, 
0x4a, 0xd9, 0xff, 0xff, 0x04, 0x00, 0x00, 0x00, 0x08, 0x00, 0x00, 0x00, 
0xff, 0xff, 0xff, 0xff, 0x10, 0x00, 0x00, 0x00, 0x5e, 0xd9, 0xff, 0xff, 
0x04, 0x00, 0x00, 0x00, 0x08, 0x00, 0x00, 0x00, 0x00, 0x00, 0x00, 0x00, 
0x10, 0x00, 0x00, 0x00, 0x72, 0xd9, 0xff, 0xff, 0x04, 0x00, 0x00, 0x00, 
0x04, 0x00, 0x00, 0x00, 0x01, 0x00, 0x00, 0x00, 0x82, 0xd9, 0xff, 0xff, 
0x04, 0x00, 0x00, 0x00, 0x00, 0x01, 0x00, 0x00, 0x00, 0x00, 0x00, 0x00, 
0x00, 0x00, 0x00, 0x00, 0x00, 0x00, 0x00, 0x00, 0x00, 0x00, 0x00, 0x00, 
0x00, 0x00, 0x00, 0x00, 0x00, 0x00, 0x00, 0x00, 0x00, 0x00, 0x00, 0x00, 
0x00, 0x00, 0x00, 0x00, 0x00, 0x00, 0x00, 0x00, 0x00, 0x00, 0x00, 0x00, 
0x00, 0x00, 0x00, 0x00, 0x00, 0x00, 0x00, 0x00, 0x00, 0x00, 0x00, 0x00, 
0x00, 0x00, 0x00, 0x00, 0x00, 0x00, 0x00, 0x00, 0x00, 0x00, 0x00, 0x00, 
0x00, 0x00, 0x80, 0x3f, 0x00, 0x00, 0x80, 0x3f, 0x00, 0x00, 0x80, 0x3f, 
0x00, 0x00, 0x80, 0x3f, 0x00, 0x00, 0x80, 0x3f, 0x00, 0x00, 0x80, 0x3f, 
0x00, 0x00, 0x80, 0x3f, 0x00, 0x00, 0x80, 0x3f, 0x00, 0x00, 0x80, 0x3f, 
0x00, 0x00, 0x80, 0x3f, 0x00, 0x00, 0x80, 0x3f, 0x00, 0x00, 0x80, 0x3f, 
0x00, 0x00, 0x80, 0x3f, 0x00, 0x00, 0x80, 0x3f, 0x00, 0x00, 0x80, 0x3f, 
0x00, 0x00, 0x80, 0x3f, 0x00, 0x00, 0x00, 0x00, 0x00, 0x00, 0x00, 0x00, 
0x00, 0x00, 0x00, 0x00, 0x00, 0x00, 0x00, 0x00, 0x00, 0x00, 0x00, 0x00, 
0x00, 0x00, 0x00, 0x00, 0x00, 0x00, 0x00, 0x00, 0x00, 0x00, 0x00, 0x00, 
0x00, 0x00, 0x00, 0x00, 0x00, 0x00, 0x00, 0x00, 0x00, 0x00, 0x00, 0x00, 
0x00, 0x00, 0x00, 0x00, 0x00, 0x00, 0x00, 0x00, 0x00, 0x00, 0x00, 0x00, 
0x00, 0x00, 0x00, 0x00, 0x00, 0x00, 0x00, 0x00, 0x00, 0x00, 0x00, 0x00, 
0x00, 0x00, 0x00, 0x00, 0x00, 0x00, 0x00, 0x00, 0x00, 0x00, 0x00, 0x00, 
0x00, 0x00, 0x00, 0x00, 0x00, 0x00, 0x00, 0x00, 0x00, 0x00, 0x00, 0x00, 
0x00, 0x00, 0x00, 0x00, 0x00, 0x00, 0x00, 0x00, 0x00, 0x00, 0x00, 0x00, 
0x00, 0x00, 0x00, 0x00, 0x00, 0x00, 0x00, 0x00, 0x00, 0x00, 0x00, 0x00, 
0x00, 0x00, 0x00, 0x00, 0x00, 0x00, 0x00, 0x00, 0x00, 0x00, 0x00, 0x00, 
0x8e, 0xda, 0xff, 0xff, 0x04, 0x00, 0x00, 0x00, 0x80, 0x00, 0x00, 0x00, 
0x00, 0x00, 0x00, 0x00, 0x00, 0x00, 0x00, 0x00, 0x00, 0x00, 0x00, 0x00, 
0x00, 0x00, 0x00, 0x00, 0x00, 0x00, 0x00, 0x00, 0x00, 0x00, 0x00, 0x00, 
0x00, 0x00, 0x00, 0x00, 0x00, 0x00, 0x00, 0x00, 0x00, 0x00, 0x80, 0x3f, 
0x00, 0x00, 0x80, 0x3f, 0x00, 0x00, 0x80, 0x3f, 0x00, 0x00, 0x80, 0x3f, 
0x00, 0x00, 0x80, 0x3f, 0x00, 0x00, 0x80, 0x3f, 0x00, 0x00, 0x80, 0x3f, 
0x00, 0x00, 0x80, 0x3f, 0x00, 0x00, 0x00, 0x00, 0x00, 0x00, 0x00, 0x00, 
0x00, 0x00, 0x00, 0x00, 0x00, 0x00, 0x00, 0x00, 0x00, 0x00, 0x00, 0x00, 
0x00, 0x00, 0x00, 0x00, 0x00, 0x00, 0x00, 0x00, 0x00, 0x00, 0x00, 0x00, 
0x00, 0x00, 0x00, 0x00, 0x00, 0x00, 0x00, 0x00, 0x00, 0x00, 0x00, 0x00, 
0x00, 0x00, 0x00, 0x00, 0x00, 0x00, 0x00, 0x00, 0x00, 0x00, 0x00, 0x00, 
0x00, 0x00, 0x00, 0x00, 0x00, 0x00, 0x00, 0x00, 0x1a, 0xdb, 0xff, 0xff, 
0x04, 0x00, 0x00, 0x00, 0x00, 0x10, 0x00, 0x00, 0x20, 0x5e, 0x83, 0x3d, 
0xf9, 0xc8, 0x4d, 0xbd, 0x7f, 0xa3, 0x07, 0xbd, 0x97, 0xce, 0x24, 0xbd, 
0x1a, 0xf5, 0xb7, 0xbd, 0x63, 0x41, 0xc7, 0xbc, 0x86, 0xf9, 0x96, 0xb9, 
0x8a, 0x70, 0xa6, 0x3d, 0x4f, 0x39, 0xfe, 0x3d, 0x6e, 0x9f, 0x37, 0x3d, 
0x09, 0x3b, 0x27, 0xbd, 0xc9, 0x04, 0xe4, 0x3b, 0x21, 0xa8, 0x1d, 0xbe, 
0xb2, 0xbc, 0x0b, 0xbe, 0x3f, 0x3b, 0xce, 0xbd, 0xb6, 0x84, 0x15, 0x3e, 
0x33, 0xb6, 0x25, 0xbb, 0xad, 0x4a, 0x57, 0x3d, 0x6b, 0x36, 0x1e, 0x3c, 
0xd4, 0xce, 0x75, 0x3e, 0xc9, 0x64, 0x83, 0x3d, 0xe5, 0x6f, 0xa8, 0x3d, 
0x72, 0x29, 0xf3, 0xbc, 0x0b, 0x52, 0x15, 0xbd, 0x71, 0x4d, 0xf2, 0x3d, 
0x23, 0xe0, 0x25, 0xbc, 0x17, 0x24, 0xc0, 0x3d, 0xd5, 0x88, 0x3e, 0xbe, 
0xe4, 0xdd, 0x94, 0x3e, 0xd2, 0xb3, 0x14, 0xbe, 0x51, 0xd0, 0x1a, 0x3c, 
0x93, 0xc1, 0x87, 0xbc, 0xea, 0x58, 0x1d, 0xbe, 0xf6, 0x94, 0x9a, 0xbc, 
0x48, 0x36, 0x0a, 0xbc, 0xdd, 0x1a, 0x60, 0xbc, 0x46, 0xb5, 0x80, 0x3c, 
0x86, 0x38, 0xe2, 0x3d, 0x4b, 0xb3, 0x83, 0xbe, 0x7a, 0x81, 0x1f, 0x3e, 
0x35, 0xe5, 0x21, 0x3d, 0xb9, 0xde, 0xa2, 0xbd, 0x34, 0xb7, 0x18, 0xbe, 
0x6a, 0x6e, 0xde, 0x3d, 0xe4, 0xd6, 0x60, 0x3d, 0x0a, 0xc0, 0x11, 0x3e, 
0x66, 0xab, 0x5c, 0x3e, 0x09, 0x44, 0x87, 0x3d, 0x04, 0x45, 0x3f, 0xbd, 
0xfc, 0x60, 0x27, 0x3e, 0x0a, 0x21, 0x43, 0xbc, 0x38, 0x77, 0x6d, 0x39, 
0xa5, 0x90, 0x42, 0x3d, 0x61, 0xc3, 0x91, 0x3d, 0x20, 0x1a, 0x10, 0x3e, 
0x65, 0x7c, 0x33, 0x3d, 0xd3, 0x0e, 0xec, 0xbd, 0xe1, 0xcd, 0x02, 0xbe, 
0x4e, 0x37, 0x9c, 0x3a, 0xc4, 0xb3, 0xc0, 0xbd, 0x8e, 0xaf, 0x27, 0xbe, 
0x2a, 0x18, 0x33, 0x3d, 0xa4, 0x47, 0xa2, 0x3d, 0x15, 0xb9, 0x5b, 0x3e, 
0x12, 0xca, 0x6e, 0xbd, 0x46, 0x0f, 0x18, 0x3e, 0xd8, 0xa2, 0x71, 0xbd, 
0x94, 0x0e, 0x60, 0xbe, 0xb6, 0x61, 0x81, 0x3e, 0x1a, 0xab, 0x68, 0x3d, 
0x40, 0x2e, 0xa2, 0x3c, 0xb8, 0x79, 0x57, 0xbe, 0xdf, 0xc5, 0x84, 0xbe, 
0x88, 0xb3, 0x12, 0x3e, 0x10, 0x4b, 0x17, 0xbe, 0x3c, 0xa1, 0x36, 0x3d, 
0xd3, 0x63, 0x6a, 0xbd, 0x3b, 0xe2, 0x41, 0x3e, 0xc8, 0x4a, 0xd1, 0x3c, 
0xcb, 0xef, 0x5d, 0x3e, 0x30, 0x4b, 0xed, 0x3d, 0x61, 0x66, 0x77, 0x3d, 
0xf8, 0xbe, 0x8b, 0x3e, 0xeb, 0x04, 0x36, 0x3d, 0x8e, 0x9a, 0xaf, 0x3d, 
0xc6, 0x93, 0x87, 0xbd, 0xc1, 0x8f, 0x30, 0x3c, 0x10, 0x1b, 0x66, 0xbe, 
0x0a, 0xfa, 0xd0, 0xbd, 0x0f, 0x50, 0x0f, 0x3e, 0xf1, 0xcd, 0x1f, 0x3e, 
0xdb, 0x5e, 0xbc, 0x3c, 0xfd, 0xe4, 0xfe, 0xbd, 0x5b, 0x77, 0x41, 0x3d, 
0x39, 0x46, 0x68, 0x3d, 0xc4, 0xc8, 0xa8, 0x3d, 0x6b, 0xc4, 0x98, 0xbd, 
0xe1, 0x25, 0xcd, 0x3c, 0xff, 0x3c, 0x7a, 0xbe, 0xc8, 0xc0, 0x92, 0x3d, 
0x36, 0x56, 0xbb, 0x3d, 0x28, 0x0d, 0x94, 0x3b, 0x33, 0x8f, 0x31, 0x3e, 
0x6b, 0x53, 0xe0, 0x3c, 0x8e, 0x00, 0xd8, 0x3c, 0x02, 0x67, 0x70, 0xbc, 
0x89, 0x8f, 0xd2, 0x3d, 0x05, 0x3c, 0x4f, 0x3e, 0x1a, 0x0b, 0x01, 0xbd, 
0xc2, 0x94, 0x3b, 0x3d, 0x10, 0xde, 0xf5, 0x3a, 0x50, 0x9d, 0x00, 0x3d, 
0xaf, 0x6e, 0x0a, 0xbd, 0x44, 0xf1, 0x72, 0x3e, 0x33, 0x8b, 0x61, 0x3e, 
0xe9, 0xfa, 0x23, 0xbb, 0x11, 0xd1, 0x6f, 0xbd, 0x7c, 0x38, 0x17, 0x3d, 
0x96, 0x9b, 0x20, 0x3e, 0x03, 0x9f, 0x9b, 0xbd, 0xa7, 0xbf, 0x55, 0xbc, 
0x69, 0x68, 0x80, 0xbe, 0xeb, 0xd4, 0xa0, 0xbd, 0x60, 0x2f, 0xa4, 0x3d, 
0x56, 0x07, 0x12, 0xbe, 0x0e, 0xd7, 0x12, 0x3e, 0xf0, 0x4d, 0x87, 0x3d, 
0x9f, 0xf9, 0x26, 0xbe, 0xde, 0x0a, 0x85, 0x3e, 0xd2, 0xa0, 0xbd, 0xbc, 
0x82, 0x62, 0x61, 0x3e, 0x05, 0xb8, 0x08, 0x3e, 0x2e, 0xd7, 0x1b, 0x3e, 
0x53, 0x0c, 0xa3, 0xbd, 0x3b, 0x87, 0x20, 0xbe, 0x06, 0x44, 0x3c, 0xbe, 
0x2f, 0xc5, 0x01, 0xbe, 0x01, 0x19, 0xd0, 0xbc, 0xfa, 0xe6, 0xf8, 0x3d, 
0xe4, 0x52, 0x18, 0x3d, 0x96, 0x43, 0xcb, 0x3d, 0x7d, 0x43, 0x41, 0x3d, 
0xb0, 0x06, 0xc5, 0xbb, 0xcf, 0x4d, 0xf9, 0x3c, 0x61, 0xe6, 0xf2, 0x3c, 
0xa6, 0x5a, 0xbe, 0xbc, 0x27, 0x02, 0x0f, 0x3e, 0x65, 0xa8, 0xb8, 0xbd, 
0x3c, 0xf2, 0x02, 0x3e, 0x46, 0xb0, 0x9a, 0x3c, 0xf3, 0x2c, 0xfb, 0x3d, 
0x15, 0x7c, 0xe9, 0xbc, 0x20, 0x78, 0x01, 0xbe, 0x06, 0x20, 0xe8, 0xbc, 
0x7e, 0x90, 0xfa, 0x3d, 0xc3, 0x88, 0x8b, 0x3e, 0x0c, 0xcf, 0xf3, 0xbc, 
0x83, 0x37, 0x41, 0xbe, 0x4e, 0x5a, 0x6f, 0x3d, 0x36, 0xfe, 0x69, 0xbe, 
0xea, 0x1a, 0x7c, 0xbe, 0x1d, 0xb8, 0x55, 0x3d, 0x70, 0xc2, 0x64, 0x3d, 
0xb0, 0x4f, 0xce, 0x3d, 0x24, 0x92, 0x82, 0x3d, 0x92, 0xac, 0x2b, 0xbd, 
0xce, 0xf1, 0x28, 0xbe, 0x34, 0xe7, 0x35, 0xbe, 0x00, 0x77, 0x47, 0x3e, 
0x0d, 0x43, 0x00, 0xbc, 0x1c, 0x53, 0x0f, 0x3c, 0x8c, 0x01, 0x95, 0x3d, 
0x76, 0x07, 0xb9, 0xbd, 0x60, 0x77, 0x85, 0x3e, 0x3b, 0xdb, 0xad, 0x3d, 
0xbc, 0xa9, 0xf3, 0xbd, 0x7a, 0x4b, 0x50, 0x3d, 0x36, 0x70, 0x8b, 0xbd, 
0x73, 0xd2, 0xa4, 0xbc, 0x03, 0x5f, 0x1a, 0xbd, 0xf7, 0xeb, 0xbc, 0xbc, 
0x6d, 0x26, 0x87, 0xbe, 0xf9, 0x82, 0xed, 0xbd, 0xf4, 0x6c, 0xb1, 0x3c, 
0xc4, 0x13, 0x2d, 0xbe, 0x79, 0xd1, 0x2d, 0xbe, 0x2f, 0xfe, 0x98, 0xbd, 
0x63, 0xc0, 0x82, 0x3d, 0xdc, 0x45, 0x9d, 0xbe, 0xcb, 0xc6, 0x81, 0xbd, 
0xee, 0x19, 0x65, 0x3e, 0x9d, 0x6b, 0xc8, 0xbd, 0x76, 0x7c, 0x43, 0xbd, 
0x55, 0x1b, 0x15, 0xbe, 0xde, 0x9d, 0xba, 0xbb, 0xa2, 0xcc, 0x7e, 0xbd, 
0x9a, 0x40, 0x36, 0x3d, 0x1a, 0x60, 0x41, 0xbd, 0x49, 0x54, 0x13, 0x3e, 
0xa9, 0x65, 0x34, 0x3d, 0xbd, 0x40, 0x0c, 0x3e, 0x69, 0xbb, 0x04, 0x3e, 
0x97, 0x08, 0xbc, 0x3c, 0xd2, 0xd2, 0x42, 0x3e, 0x64, 0x5e, 0x13, 0xbe, 
0x6c, 0x20, 0x26, 0xbe, 0xb0, 0xb5, 0xab, 0x3d, 0xae, 0xbe, 0xaf, 0x3d, 
0xbb, 0x97, 0x10, 0xbe, 0xa3, 0x9b, 0x1d, 0x3e, 0x23, 0x38, 0xe0, 0xbd, 
0x65, 0x5b, 0xac, 0x3d, 0x36, 0x4f, 0x1e, 0x3d, 0x49, 0x97, 0x08, 0xbd, 
0x54, 0xa9, 0xa1, 0x3d, 0x2a, 0x13, 0x41, 0xbd, 0xf8, 0x9d, 0x8e, 0xbd, 
0x12, 0xeb, 0xd9, 0xbc, 0x7b, 0xb0, 0xd9, 0x3d, 0x67, 0xaa, 0x4c, 0xbe, 
0xb2, 0xd4, 0x27, 0xbc, 0x86, 0x67, 0x9d, 0xbd, 0x80, 0x74, 0x92, 0xbe, 
0x46, 0x5c, 0xe2, 0xbd, 0x57, 0x3a, 0x61, 0xbd, 0xf3, 0x84, 0x2b, 0x3d, 
0x95, 0x52, 0x6f, 0xbc, 0x4c, 0xbc, 0x76, 0xbe, 0x90, 0x60, 0x65, 0x3d, 
0x95, 0x5a, 0x5f, 0xbe, 0xfd, 0xda, 0x67, 0x3c, 0x64, 0xf3, 0x18, 0x3e, 
0xb7, 0x0d, 0x0f, 0x3e, 0x4b, 0xfc, 0x3b, 0x3d, 0x5c, 0x1a, 0xa2, 0x3e, 
0x84, 0xaf, 0xae, 0xbd, 0x6c, 0x1d, 0x03, 0xbd, 0x68, 0x14, 0x1f, 0x3e, 
0x4b, 0x84, 0x96, 0x3e, 0xa0, 0x17, 0x99, 0x3d, 0xe4, 0x8c, 0x9f, 0xbd, 
0x48, 0xdd, 0xad, 0x3e, 0x0a, 0xd9, 0x0f, 0x3e, 0xfe, 0x5e, 0x83, 0xbb, 
0x86, 0x20, 0x9c, 0xbc, 0x55, 0x35, 0xc7, 0x3c, 0x88, 0x57, 0xc5, 0x3c, 
0xdf, 0x80, 0x1c, 0x3c, 0x09, 0x10, 0x42, 0x3e, 0x8a, 0x8b, 0x31, 0x3e, 
0xa2, 0xab, 0x47, 0xbe, 0x86, 0xb0, 0x92, 0x3e, 0x17, 0x66, 0xa6, 0x3c, 
0xa4, 0x75, 0x5f, 0xbe, 0x37, 0x49, 0x84, 0x3d, 0x49, 0x72, 0x22, 0x3e, 
0x01, 0xf5, 0x9c, 0x3d, 0x8b, 0x37, 0x19, 0xbd, 0x64, 0x6d, 0x2d, 0xbe, 
0x33, 0xa0, 0xde, 0xbd, 0x6f, 0xd0, 0x03, 0x3d, 0x4d, 0xff, 0x25, 0x3d, 
0x7a, 0x04, 0x2e, 0x3e, 0x7e, 0x26, 0x96, 0xbd, 0x48, 0xb2, 0x7e, 0xbd, 
0x64, 0xe0, 0x99, 0x3c, 0xb4, 0x0e, 0xe4, 0x3a, 0x7c, 0xc5, 0x83, 0x3e, 
0xee, 0x64, 0xbd, 0x3d, 0x0e, 0xf5, 0x89, 0xbd, 0x84, 0xb3, 0xf9, 0x3c, 
0xba, 0x20, 0xac, 0x3c, 0x99, 0x6b, 0xdd, 0x3d, 0x72, 0xbe, 0x2b, 0xbd, 
0xe0, 0x3e, 0x16, 0xbe, 0x06, 0xb0, 0x39, 0x3e, 0x65, 0x8b, 0x23, 0xbe, 
0x3f, 0xa9, 0x0f, 0x3c, 0x6a, 0x27, 0x6c, 0xbe, 0x8e, 0x68, 0x6b, 0x3e, 
0x96, 0x9d, 0x3d, 0xbe, 0x47, 0x72, 0x64, 0x3d, 0x8e, 0xbc, 0x0d, 0x3d, 
0xf3, 0xc9, 0x16, 0x3e, 0xe4, 0x5b, 0x84, 0x3b, 0x80, 0xe6, 0x16, 0x3e, 
0xf2, 0x0e, 0x25, 0xbd, 0xdc, 0x2d, 0xaa, 0x3d, 0x27, 0x72, 0x93, 0xbd, 
0xee, 0x44, 0x41, 0x3e, 0x30, 0x87, 0xf8, 0xbd, 0x09, 0xd3, 0xe2, 0xbc, 
0x97, 0x6a, 0x91, 0x3d, 0xf0, 0x9f, 0x97, 0x3d, 0x89, 0xb4, 0xbe, 0x39, 
0xda, 0xf2, 0x90, 0x3e, 0x45, 0xbd, 0x1d, 0x3d, 0xf0, 0x20, 0xa7, 0xbd, 
0xf1, 0x6b, 0xfd, 0x3d, 0x60, 0xf7, 0xef, 0xbd, 0xeb, 0x9f, 0xa1, 0xbe, 
0x73, 0x0c, 0x0c, 0x3e, 0x32, 0x0f, 0x53, 0x3c, 0x4a, 0xc9, 0xbf, 0xbd, 
0x13, 0xc2, 0x54, 0x3e, 0x47, 0xae, 0x4b, 0x3e, 0xaf, 0x28, 0x5c, 0xbd, 
0x9f, 0x11, 0x10, 0x3e, 0xb4, 0x8e, 0xcb, 0x3d, 0x6a, 0x5a, 0x28, 0xbe, 
0xdd, 0x06, 0x89, 0x3d, 0xdf, 0x81, 0x57, 0xbe, 0x53, 0xc4, 0xd4, 0x3d, 
0xde, 0x1c, 0xfd, 0x3d, 0x42, 0x44, 0x2a, 0x3d, 0x0d, 0x0b, 0xda, 0xbd, 
0xd8, 0xba, 0x69, 0xbd, 0x1c, 0xed, 0x56, 0xbd, 0x34, 0x31, 0x24, 0x3e, 
0xc1, 0x5f, 0x79, 0xbe, 0xab, 0xa0, 0x86, 0xbe, 0x45, 0x62, 0x98, 0x3e, 
0xae, 0x06, 0x45, 0xbd, 0xed, 0x62, 0x42, 0x3e, 0x70, 0x01, 0x3a, 0xbd, 
0x53, 0x61, 0x59, 0xbc, 0x5b, 0x0c, 0x92, 0xbd, 0xf7, 0x0d, 0xfa, 0xbd, 
0xcf, 0xfa, 0x32, 0xbe, 0xf3, 0x91, 0x0b, 0x3d, 0xcf, 0xa8, 0x86, 0x3e, 
0xf4, 0xc8, 0x19, 0xbe, 0xd9, 0x91, 0x53, 0x3d, 0x5a, 0x83, 0x66, 0xbe, 
0x11, 0x83, 0x33, 0x3d, 0x16, 0xa6, 0x36, 0x3d, 0x57, 0xe7, 0xda, 0x3b, 
0xda, 0x5c, 0x10, 0xbd, 0x3e, 0xae, 0xb8, 0xbd, 0x41, 0x40, 0x00, 0xbd, 
0x62, 0xbd, 0x45, 0x3d, 0x1c, 0x8f, 0xc8, 0xbd, 0x96, 0x75, 0x26, 0xbe, 
0xe1, 0x10, 0xed, 0x3d, 0x0d, 0x42, 0x22, 0x3d, 0xc4, 0x4f, 0x8e, 0x3d, 
0x00, 0x71, 0xc2, 0xbd, 0xdc, 0xa9, 0x4a, 0xbd, 0x31, 0x1a, 0x58, 0x3d, 
0xe5, 0x37, 0x6b, 0xbd, 0xc2, 0x84, 0x84, 0xbd, 0xb2, 0x80, 0xd1, 0x3d, 
0x49, 0xae, 0x81, 0x3e, 0x81, 0x16, 0x93, 0xbd, 0x53, 0xb7, 0x58, 0xbe, 
0x71, 0xc5, 0x71, 0xbd, 0x04, 0xdf, 0x45, 0x3e, 0x67, 0x90, 0x47, 0x3d, 
0xfb, 0x49, 0x51, 0xbe, 0x95, 0x6a, 0x1d, 0xbe, 0xc8, 0xbd, 0xf4, 0xbc, 
0x46, 0xe6, 0x76, 0x3e, 0x7a, 0xfb, 0x7d, 0xbc, 0x41, 0xa8, 0x15, 0xbe, 
0x02, 0xa0, 0xec, 0xbd, 0x80, 0xf3, 0x20, 0x3c, 0x8b, 0x22, 0xe0, 0xbd, 
0x40, 0x1f, 0x43, 0x3b, 0x76, 0xf3, 0x72, 0x3d, 0xcc, 0x84, 0x3b, 0x3e, 
0x99, 0xa4, 0x3c, 0xbb, 0xe0, 0xbf, 0xb1, 0x3d, 0x50, 0xda, 0x02, 0xbe, 
0x66, 0xa8, 0x12, 0xbe, 0xd4, 0x24, 0x81, 0x3d, 0xa2, 0x04, 0x25, 0xbe, 
0xb4, 0xf7, 0x38, 0x3b, 0xc9, 0x57, 0x9d, 0xbd, 0x9f, 0x40, 0xb6, 0xbd, 
0x7f, 0x14, 0x11, 0xbe, 0x55, 0x04, 0x78, 0xbe, 0x64, 0x17, 0x56, 0xbc, 
0x4c, 0xdf, 0x99, 0x3d, 0x02, 0x3c, 0x23, 0xbd, 0x07, 0x5e, 0x0a, 0xbe, 
0x6e, 0xf9, 0xaf, 0x3b, 0x94, 0x34, 0xbf, 0xbc, 0xa2, 0x34, 0x2d, 0x3e, 
0x1c, 0x05, 0x13, 0x3e, 0xf0, 0x82, 0x08, 0x3d, 0x0b, 0x17, 0x62, 0x3d, 
0x8b, 0x6a, 0x04, 0x3d, 0x77, 0x15, 0xce, 0x3c, 0x7d, 0x53, 0x28, 0x3e, 
0x28, 0x3f, 0x1f, 0xbe, 0x0b, 0x34, 0xd5, 0xbd, 0x30, 0xce, 0x6a, 0xbd, 
0x03, 0x63, 0xbe, 0xbd, 0x78, 0x07, 0x61, 0x3e, 0xe5, 0x5e, 0x00, 0x3e, 
0x61, 0x50, 0xea, 0xbc, 0x1b, 0x4d, 0x12, 0x3d, 0xd7, 0xdf, 0x91, 0xbe, 
0x35, 0x60, 0x8d, 0xbb, 0xbc, 0x5d, 0x8b, 0x3d, 0xe6, 0x35, 0x98, 0xbd, 
0xc9, 0xae, 0x27, 0x3e, 0x42, 0x20, 0x6c, 0xbd, 0x53, 0x1e, 0xa2, 0x3e, 
0xd9, 0x3e, 0xb2, 0x3d, 0x90, 0xe9, 0x76, 0x3d, 0x33, 0xc3, 0x4b, 0xbd, 
0x1f, 0xe9, 0x1b, 0x3d, 0x73, 0xe6, 0xc6, 0x3d, 0xbb, 0x4b, 0x5b, 0x3d, 
0x8c, 0x56, 0x20, 0xbd, 0x92, 0x82, 0x6f, 0x3d, 0x77, 0x52, 0x04, 0x3b, 
0x8a, 0xfe, 0xbe, 0x3d, 0xd4, 0x0b, 0x7e, 0x3e, 0xc6, 0xc6, 0x36, 0x3e, 
0x27, 0x9b, 0x60, 0xbd, 0x7c, 0xe2, 0xde, 0x3d, 0xd2, 0x8c, 0x0e, 0x3e, 
0xab, 0x5d, 0xb0, 0xbd, 0xca, 0xca, 0x49, 0xbd, 0x07, 0x82, 0x4e, 0x3e, 
0xcf, 0xd4, 0xa2, 0xbd, 0xc7, 0xd6, 0x24, 0x3e, 0x30, 0x1d, 0x0b, 0xbe, 
0x8b, 0x58, 0x38, 0x3c, 0x53, 0x35, 0x43, 0x3e, 0x4a, 0xc4, 0xdb, 0xbc, 
0x43, 0xc6, 0x2d, 0xbd, 0x10, 0x2e, 0xc4, 0x3d, 0x25, 0x91, 0xd4, 0x3d, 
0x6f, 0x7b, 0xef, 0xbd, 0x45, 0x0f, 0x4a, 0xbe, 0x6a, 0xcc, 0x41, 0xbd, 
0x6d, 0x3b, 0x82, 0x3c, 0x83, 0x78, 0xca, 0xbd, 0x5c, 0x29, 0x92, 0x3d, 
0xe0, 0x0b, 0x52, 0x3e, 0xef, 0xae, 0x33, 0xbc, 0xdd, 0x81, 0x8d, 0xbd, 
0x82, 0x2a, 0x93, 0x3d, 0xfa, 0x90, 0xc4, 0x3c, 0x53, 0xb9, 0x07, 0x3e, 
0xd4, 0x42, 0x70, 0xbd, 0x78, 0x46, 0x59, 0xbe, 0xda, 0x2f, 0x89, 0x3d, 
0xb9, 0xfb, 0x7f, 0x3d, 0x9e, 0xf6, 0xf7, 0xbd, 0xe0, 0x50, 0x62, 0xbd, 
0x9d, 0x6b, 0x10, 0x3c, 0x26, 0x27, 0xa3, 0x3c, 0xe0, 0x4a, 0x17, 0xbe, 
0xa2, 0x51, 0x2f, 0x3d, 0x41, 0xf6, 0x38, 0xbe, 0xa9, 0xa5, 0x18, 0xbe, 
0x38, 0x94, 0x14, 0xbe, 0x24, 0x95, 0xe0, 0x3c, 0x61, 0x7b, 0x08, 0x3d, 
0x62, 0x02, 0x08, 0xbe, 0x0e, 0x0c, 0x1b, 0x3e, 0x84, 0x54, 0x92, 0xbd, 
0x85, 0xc6, 0xb9, 0x3d, 0x99, 0xb9, 0x84, 0xbe, 0x24, 0x81, 0x1d, 0x3e, 
0xd5, 0x02, 0x0b, 0xbd, 0x59, 0xce, 0x00, 0x3e, 0xc0, 0xc7, 0xe6, 0x3d, 
0xf7, 0x3d, 0xa7, 0xbd, 0x11, 0x17, 0x17, 0x3e, 0x76, 0x32, 0x25, 0x3e, 
0xdc, 0xd6, 0xfe, 0xbd, 0x58, 0x08, 0xc1, 0x3c, 0x2a, 0x63, 0x6d, 0x3d, 
0xfb, 0xa8, 0x44, 0x3c, 0x93, 0x65, 0xc1, 0xbd, 0x77, 0x51, 0x88, 0x3e, 
0x65, 0xec, 0xc1, 0x3d, 0xef, 0xcf, 0xc6, 0x3d, 0x41, 0x95, 0xf4, 0x3d, 
0x6e, 0xa1, 0xef, 0x3d, 0xe0, 0xf7, 0x17, 0xbc, 0x31, 0x2a, 0x7d, 0xbd, 
0x62, 0x6f, 0xd4, 0x3d, 0xd0, 0x91, 0x91, 0xba, 0x97, 0xcf, 0xc3, 0x3d, 
0x9e, 0xf9, 0x2f, 0xbd, 0xe0, 0xa1, 0x15, 0xbd, 0xc1, 0x5a, 0x81, 0xbd, 
0xa6, 0x8d, 0xa7, 0x3d, 0x22, 0xa3, 0x98, 0x3d, 0x51, 0xbe, 0x14, 0x3e, 
0xd4, 0x12, 0x20, 0x3c, 0x17, 0x8a, 0x68, 0x3e, 0xce, 0xc2, 0xe6, 0x3d, 
0x8b, 0xcd, 0x5e, 0xbd, 0xb4, 0x44, 0x3f, 0xbc, 0x40, 0x83, 0xbe, 0x3c, 
0xd9, 0x67, 0x71, 0x3d, 0xe9, 0xcc, 0x0b, 0xbd, 0x46, 0x97, 0x00, 0xbe, 
0x13, 0x14, 0x58, 0xbc, 0x8e, 0x98, 0x12, 0x3d, 0x34, 0xce, 0x21, 0x3e, 
0x5e, 0x04, 0xed, 0x3d, 0x22, 0x8b, 0x82, 0xbd, 0x11, 0x6e, 0x1d, 0xbe, 
0x82, 0xe6, 0x20, 0xbc, 0x35, 0x83, 0x50, 0x3e, 0x20, 0xc8, 0x3d, 0x3d, 
0x79, 0x2f, 0x97, 0x3e, 0x67, 0x8b, 0x8c, 0x3d, 0xad, 0x2c, 0xd7, 0x3d, 
0xe5, 0x5e, 0xe6, 0x3b, 0xa7, 0x49, 0x27, 0x3e, 0xe5, 0x22, 0x9d, 0x3e, 
0x9a, 0xbd, 0xd8, 0x3d, 0x70, 0xde, 0xb5, 0xbd, 0x2f, 0x30, 0x21, 0xbe, 
0xe1, 0x2d, 0x62, 0xbe, 0xfc, 0x91, 0x3e, 0x3c, 0xa6, 0xbb, 0x62, 0x3c, 
0x11, 0x19, 0xbe, 0x3d, 0x33, 0x29, 0x62, 0x3d, 0xfa, 0x4c, 0x8f, 0xbe, 
0xa9, 0x80, 0x55, 0xbe, 0xaf, 0x4d, 0xa2, 0xbd, 0xf0, 0x4f, 0x88, 0xbb, 
0x08, 0x3d, 0x75, 0x3e, 0xfb, 0xa4, 0x2c, 0xbe, 0xb1, 0x44, 0xd9, 0xbc, 
0xac, 0x3e, 0x1e, 0x3d, 0x0b, 0x4a, 0x19, 0xbe, 0x17, 0xf5, 0x34, 0xbd, 
0x40, 0x9a, 0x81, 0x3d, 0x1f, 0x9e, 0xc4, 0xbd, 0xf0, 0xf1, 0xea, 0x3b, 
0xaa, 0x64, 0xf9, 0xbc, 0x9b, 0x20, 0x44, 0xbe, 0x58, 0xb0, 0x9f, 0x3d, 
0xf4, 0xd7, 0x18, 0x3e, 0x19, 0x45, 0x45, 0x3d, 0x73, 0xe9, 0x87, 0xbe, 
0x54, 0xbd, 0x72, 0x3e, 0x30, 0xa7, 0x75, 0x3d, 0xe6, 0x6a, 0xd1, 0x3d, 
0x4f, 0xc3, 0x8a, 0xbe, 0xda, 0xe9, 0x47, 0x3d, 0x0a, 0x3b, 0xbe, 0xbd, 
0x06, 0xf3, 0xec, 0x3d, 0x1a, 0x41, 0x5b, 0xbb, 0x06, 0xed, 0xd5, 0x3d, 
0xec, 0x71, 0x1a, 0x3e, 0xb8, 0x40, 0x16, 0xbb, 0xf9, 0x4c, 0x9f, 0x3e, 
0xa0, 0xca, 0x51, 0xbe, 0x38, 0xa0, 0x7a, 0xbe, 0x98, 0x60, 0x0a, 0xbe, 
0xc8, 0x2a, 0xeb, 0x3d, 0x29, 0x45, 0xad, 0x3d, 0x48, 0xd7, 0xc3, 0xbb, 
0x65, 0x3b, 0x8c, 0xbe, 0xbe, 0xdf, 0x4d, 0x3c, 0xcb, 0x37, 0x5d, 0xbe, 
0x4e, 0x70, 0xfb, 0x3d, 0x50, 0x7c, 0xa7, 0x3d, 0xf0, 0x4a, 0x43, 0xbe, 
0xf4, 0xf5, 0xad, 0x3c, 0x94, 0x7a, 0x40, 0x3e, 0xd8, 0xa5, 0x7c, 0x3d, 
0xbf, 0xc6, 0xa2, 0xbc, 0x3a, 0x7a, 0x7d, 0x3d, 0xa1, 0x28, 0x15, 0xbd, 
0x16, 0x5e, 0x1f, 0xbc, 0x3e, 0x27, 0x8b, 0x3d, 0xfa, 0xb3, 0x10, 0xbd, 
0x63, 0x80, 0xed, 0xbd, 0x4e, 0x26, 0x38, 0xbe, 0x72, 0xaa, 0x5b, 0xbe, 
0x04, 0x61, 0xf3, 0x3c, 0xa4, 0xe4, 0x27, 0xbe, 0xf6, 0x14, 0xf7, 0xbd, 
0xf0, 0x1d, 0xbf, 0xbd, 0x3e, 0x92, 0x0b, 0xbe, 0x06, 0x15, 0x10, 0xbc, 
0x4b, 0x4e, 0x0f, 0x3c, 0x12, 0x61, 0x1d, 0x3b, 0xe6, 0xf8, 0x1f, 0x3e, 
0xdc, 0x66, 0x3e, 0xbb, 0x29, 0x87, 0x17, 0x3c, 0xdd, 0x12, 0x91, 0xbc, 
0x25, 0x3a, 0xf9, 0x3c, 0x59, 0xa8, 0xbe, 0x3c, 0x81, 0x57, 0x1b, 0x3e, 
0x37, 0x81, 0x82, 0xbc, 0x3a, 0xd1, 0xc0, 0x3c, 0xf8, 0xd8, 0x96, 0x3e, 
0x46, 0x85, 0xfe, 0xbd, 0x0f, 0x0b, 0xc2, 0x3d, 0x57, 0xab, 0xfc, 0xbb, 
0x71, 0xa6, 0x1b, 0xbe, 0xae, 0xe2, 0xc2, 0xba, 0xc4, 0x3b, 0xef, 0xbd, 
0xff, 0x63, 0x62, 0x3b, 0xf4, 0x9b, 0x97, 0x3d, 0xb6, 0x91, 0x21, 0x3e, 
0xa4, 0x7a, 0xa7, 0xbd, 0xb9, 0x36, 0x53, 0xbe, 0x65, 0x01, 0x1d, 0x3d, 
0x39, 0x6a, 0x28, 0xbe, 0xb8, 0x6e, 0xfe, 0xbd, 0xed, 0x7a, 0xa7, 0xbd, 
0x9b, 0xc7, 0xae, 0x3d, 0x52, 0x1b, 0x36, 0xbe, 0xb8, 0x37, 0x22, 0xbe, 
0xcc, 0x49, 0xa3, 0xbc, 0x66, 0x4f, 0xa3, 0x3d, 0xb2, 0x94, 0xb0, 0xbc, 
0x03, 0xe8, 0x02, 0xbe, 0xa6, 0xcf, 0x04, 0x3d, 0xc8, 0x50, 0xbb, 0xbd, 
0x11, 0xf1, 0x0d, 0xbe, 0x6c, 0xb4, 0xf6, 0xbd, 0x04, 0x3c, 0x40, 0xbd, 
0x36, 0xb1, 0x29, 0xbd, 0x2b, 0x8e, 0x7a, 0x3e, 0x88, 0xf0, 0x6a, 0x3d, 
0x64, 0x3f, 0x14, 0xbe, 0xb7, 0x15, 0xc9, 0xbd, 0x4b, 0x71, 0xbe, 0xbd, 
0x84, 0x6c, 0xa0, 0xbc, 0xd3, 0xbd, 0xe4, 0xbd, 0x0d, 0x1a, 0x16, 0xbe, 
0xb8, 0x1d, 0xfc, 0xbd, 0x4a, 0x0a, 0x96, 0x3d, 0x1e, 0x72, 0x22, 0xbe, 
0xa3, 0xa5, 0x3d, 0x3c, 0xe8, 0x34, 0xd7, 0x3d, 0x2f, 0x97, 0x36, 0xbd, 
0x8b, 0x42, 0xd7, 0x3b, 0x91, 0x5a, 0xcf, 0xbd, 0x38, 0x25, 0x95, 0x3e, 
0x3a, 0x79, 0x53, 0xbe, 0x46, 0x70, 0xe7, 0xbd, 0xef, 0x37, 0x09, 0x3e, 
0x94, 0xb0, 0x11, 0x3c, 0x2f, 0x5b, 0x49, 0x3d, 0x40, 0x28, 0xa0, 0xbd, 
0xde, 0x16, 0x4f, 0xbe, 0x3b, 0xb0, 0xaf, 0xbd, 0x7c, 0xf6, 0x9a, 0xbd, 
0xfb, 0x1d, 0x6a, 0x3e, 0x81, 0xed, 0xa9, 0x3d, 0xf1, 0x51, 0x1b, 0xbd, 
0x98, 0xd7, 0xd3, 0x3c, 0xe4, 0xdf, 0x59, 0x3e, 0x90, 0x75, 0xa7, 0xbe, 
0x5e, 0x31, 0x34, 0xbd, 0x20, 0xc4, 0x09, 0x3e, 0xc6, 0xcf, 0xd6, 0xbc, 
0x60, 0x09, 0x10, 0xbe, 0xe7, 0xa4, 0x04, 0x3d, 0x03, 0x91, 0x2c, 0xbb, 
0x8c, 0xf0, 0x21, 0x3e, 0xd4, 0xd5, 0xc9, 0xbd, 0x69, 0x80, 0x23, 0x3e, 
0x4a, 0xb9, 0x81, 0xbd, 0x20, 0x33, 0x13, 0x3e, 0x96, 0x42, 0xcf, 0xbc, 
0x57, 0xc1, 0x24, 0x3e, 0x17, 0xb7, 0xac, 0x3d, 0xff, 0x1a, 0x9a, 0x3d, 
0xc3, 0x2f, 0xaa, 0x3e, 0x12, 0x2a, 0x1f, 0xbe, 0xa0, 0xc5, 0xc2, 0xbd, 
0x3c, 0xcc, 0x30, 0x3e, 0x71, 0x9c, 0xd8, 0x3d, 0xe2, 0x3d, 0x05, 0x3d, 
0x20, 0xd2, 0xe2, 0xbd, 0x57, 0xe6, 0xe5, 0x3d, 0xb0, 0xae, 0x2d, 0xbd, 
0x0f, 0xb7, 0xc7, 0x3d, 0x43, 0xc2, 0x83, 0xbe, 0xeb, 0x1b, 0xe1, 0xbb, 
0x9b, 0x31, 0x08, 0xbe, 0xa6, 0x5f, 0x20, 0x3e, 0x94, 0x54, 0x60, 0xbd, 
0x01, 0xb9, 0x7a, 0x3e, 0xbe, 0x9c, 0x20, 0x3d, 0x74, 0xa0, 0x9a, 0xbd, 
0x34, 0xb1, 0xe4, 0x3d, 0xf9, 0x8d, 0x47, 0x3e, 0x66, 0xc1, 0x06, 0xbe, 
0xe3, 0xbe, 0x51, 0x3c, 0x13, 0x39, 0x35, 0xbe, 0xbd, 0x31, 0xd8, 0xbc, 
0xef, 0x87, 0xc5, 0xbd, 0x1a, 0x13, 0x5a, 0xbe, 0xa7, 0x22, 0xf0, 0xbd, 
0xa8, 0x5f, 0x1a, 0xbe, 0x9d, 0x84, 0xb6, 0x3d, 0x3e, 0xef, 0x9c, 0x3e, 
0x79, 0x33, 0x0e, 0xbe, 0x10, 0x16, 0x2a, 0xbe, 0x02, 0x5a, 0x92, 0xbe, 
0x12, 0x5e, 0xbf, 0xbd, 0xd8, 0x43, 0x77, 0xbd, 0x94, 0xaf, 0x6a, 0x3d, 
0x8c, 0x37, 0xc0, 0x3c, 0x84, 0x03, 0x35, 0xbd, 0xcd, 0x4e, 0x88, 0x3b, 
0x34, 0xb3, 0x4a, 0xbe, 0x11, 0x5a, 0x6a, 0x3e, 0x8e, 0xde, 0xdb, 0x3d, 
0x4a, 0xda, 0xa8, 0xbc, 0x08, 0x06, 0xf2, 0x3d, 0x53, 0xc7, 0xe5, 0x3d, 
0xcf, 0x13, 0x95, 0x3d, 0x98, 0x65, 0x20, 0xbe, 0xd5, 0x06, 0xe4, 0x3d, 
0x08, 0xc2, 0x38, 0x3d, 0x22, 0x5a, 0x90, 0xbd, 0xaa, 0x1c, 0x80, 0x3c, 
0xe6, 0xbe, 0x24, 0xbe, 0x41, 0x76, 0x36, 0x3c, 0xb9, 0xff, 0x18, 0xbe, 
0xca, 0xe5, 0xfe, 0x3c, 0x30, 0x18, 0x51, 0x3e, 0xa8, 0xce, 0x71, 0x3b, 
0xba, 0x3b, 0x28, 0x3d, 0x8a, 0x47, 0x19, 0xbe, 0xe6, 0x54, 0xa8, 0x3d, 
0x6b, 0x63, 0x17, 0x3e, 0xa0, 0xac, 0x77, 0xbc, 0xa6, 0x32, 0x69, 0x3d, 
0x1f, 0xa4, 0xa5, 0xbd, 0xe8, 0x2c, 0x2e, 0xbe, 0x97, 0x50, 0x2b, 0xbe, 
0xfb, 0x53, 0x44, 0x3d, 0x16, 0x83, 0xec, 0x3d, 0x69, 0x0e, 0x1f, 0x3e, 
0xd4, 0x15, 0xd9, 0x3d, 0x7f, 0x6d, 0xa6, 0x3c, 0xb1, 0xc3, 0x99, 0x3c, 
0xb7, 0x44, 0x0b, 0x3d, 0x55, 0x8d, 0x20, 0xbe, 0x03, 0xb5, 0x84, 0x3c, 
0x54, 0xaf, 0xaa, 0xbd, 0x61, 0x74, 0xf7, 0xbd, 0x67, 0xec, 0x7f, 0xbc, 
0x80, 0xa4, 0x41, 0x3e, 0x87, 0xe3, 0xc4, 0x3c, 0xa9, 0x04, 0x22, 0xbe, 
0xa0, 0xbb, 0xc0, 0xbd, 0xb4, 0x0a, 0xd3, 0xbd, 0xc2, 0x4c, 0x0e, 0xbe, 
0x9c, 0x44, 0x8a, 0x3d, 0x1a, 0x2e, 0xa0, 0x3d, 0x6f, 0xa6, 0x73, 0x3d, 
0x13, 0x60, 0x73, 0xbd, 0xa6, 0x47, 0x0e, 0xbd, 0x3e, 0xbf, 0xe9, 0x3b, 
0xe9, 0x6f, 0x15, 0x3e, 0x8e, 0x44, 0x80, 0xbd, 0x44, 0x8f, 0x0a, 0xbe, 
0x0a, 0x61, 0x63, 0xbd, 0xe2, 0xd6, 0x38, 0x3e, 0xb6, 0xff, 0xb3, 0xbb, 
0xf8, 0xd0, 0x47, 0xbd, 0xe6, 0x24, 0x65, 0x3e, 0x16, 0x18, 0x6b, 0xbc, 
0xbf, 0x74, 0xb7, 0x3d, 0x5f, 0xd6, 0x07, 0xbc, 0x08, 0xa2, 0x1d, 0x3e, 
0xf3, 0xd3, 0x84, 0x3d, 0xd9, 0x33, 0x36, 0x3d, 0x81, 0x33, 0x85, 0xbc, 
0xf0, 0x8d, 0x92, 0xbc, 0x63, 0x74, 0x97, 0xbd, 0x8e, 0xc3, 0xe6, 0xbd, 
0x3f, 0x87, 0x37, 0x3d, 0x56, 0x05, 0xb2, 0xbd, 0x9c, 0x89, 0x2c, 0xbe, 
0xa3, 0x5d, 0x39, 0x3e, 0x92, 0x63, 0x68, 0x3e, 0x9c, 0xb6, 0x28, 0xbe, 
0xae, 0xab, 0xce, 0x3c, 0xa9, 0xc8, 0x68, 0x3d, 0x6c, 0x04, 0x75, 0xbc, 
0x94, 0x3b, 0x7e, 0xbe, 0x57, 0x4e, 0x4a, 0xbe, 0x75, 0x5d, 0x76, 0x3d, 
0x96, 0xce, 0x16, 0xbe, 0xc5, 0xe7, 0xf1, 0xbd, 0x58, 0x41, 0xd2, 0x3d, 
0xfe, 0xbd, 0xb6, 0x3d, 0xeb, 0x79, 0x20, 0xbe, 0x89, 0xc9, 0x08, 0x3d, 
0x0e, 0x34, 0x55, 0xbd, 0xa8, 0xa2, 0xb6, 0xbc, 0x42, 0xe2, 0x56, 0xbd, 
0xad, 0xef, 0x5e, 0xbe, 0xf9, 0xd8, 0x01, 0x3c, 0x44, 0x06, 0xdc, 0xbb, 
0x3f, 0x99, 0xec, 0x3d, 0xe1, 0x9d, 0x8d, 0x3e, 0x3a, 0x8c, 0x77, 0x3d, 
0x6c, 0x31, 0x46, 0x3b, 0xb5, 0xd8, 0x42, 0xbe, 0x10, 0xd7, 0xd7, 0xba, 
0x23, 0x33, 0x9d, 0xbc, 0x0e, 0xc5, 0x0b, 0x3e, 0xc3, 0x84, 0xe8, 0x3c, 
0x4c, 0xc0, 0xc3, 0x3d, 0x88, 0x54, 0x21, 0x3d, 0x6a, 0xef, 0x4a, 0xbd, 
0x7b, 0xb6, 0x4b, 0x3e, 0x8b, 0x49, 0x7a, 0x3e, 0xe2, 0xfa, 0x99, 0xbd, 
0x84, 0x3e, 0x88, 0xbd, 0xb0, 0xf8, 0x01, 0xbb, 0x5d, 0xff, 0x5b, 0xbd, 
0x22, 0x35, 0xeb, 0x3d, 0x72, 0x26, 0x44, 0xbc, 0x0d, 0xe9, 0xe1, 0xbd, 
0x59, 0x8c, 0x83, 0x3d, 0x8f, 0x42, 0x22, 0x3e, 0x35, 0x25, 0x80, 0x3d, 
0x95, 0x89, 0x86, 0xbd, 0xfe, 0x2c, 0x1e, 0x3e, 0x36, 0x0f, 0x9e, 0xbd, 
0x50, 0x70, 0xf0, 0x3c, 0x2e, 0xf2, 0xbb, 0xbd, 0x1b, 0xc9, 0x0f, 0x3d, 
0x52, 0x84, 0x20, 0x3e, 0x4e, 0x97, 0x09, 0x3e, 0xab, 0xc9, 0x0b, 0xbe, 
0xf3, 0x59, 0x2e, 0x3e, 0x50, 0xf4, 0x07, 0xbe, 0x84, 0x46, 0x94, 0x3d, 
0x49, 0x06, 0x4c, 0x3e, 0x21, 0x6b, 0x42, 0x3e, 0x7a, 0x3f, 0x08, 0x3e, 
0x0a, 0x64, 0x13, 0xbe, 0x2d, 0x99, 0x48, 0xbd, 0x9e, 0x1a, 0x38, 0xbd, 
0x49, 0x3a, 0x6b, 0x3d, 0xa4, 0xc3, 0x9c, 0x3d, 0xba, 0x24, 0x96, 0x3b, 
0x3f, 0xcb, 0xf2, 0x3d, 0xf2, 0x52, 0x48, 0xba, 0xc5, 0x87, 0xe0, 0xbd, 
0x99, 0xfe, 0x5b, 0xbd, 0x0e, 0xe7, 0x8c, 0x3d, 0xad, 0x41, 0xa4, 0xbd, 
0xbf, 0x4b, 0x5c, 0xbe, 0xef, 0x18, 0x44, 0xbd, 0x5d, 0x63, 0x04, 0x3e, 
0xde, 0x84, 0xc8, 0xbd, 0x9b, 0xdd, 0x08, 0xbe, 0x37, 0xc2, 0x29, 0xbd, 
0x90, 0x71, 0xf4, 0x3d, 0xe3, 0x4a, 0xb5, 0x3d, 0x91, 0xe1, 0xf0, 0xbd, 
0x6b, 0x7d, 0xe2, 0xbc, 0xf9, 0xf4, 0xb4, 0x3c, 0x4f, 0x92, 0x22, 0xbe, 
0x8c, 0xf4, 0x6e, 0x3e, 0xb9, 0xc8, 0x0f, 0xbe, 0xba, 0xf0, 0xbc, 0x3c, 
0xac, 0xd1, 0x61, 0x3e, 0x27, 0x38, 0x01, 0x3e, 0xad, 0x2f, 0xf4, 0xbd, 
0x18, 0x57, 0xb3, 0xbd, 0xf7, 0xe3, 0x40, 0xbe, 0xc0, 0x44, 0x43, 0xbd, 
0x7c, 0x5a, 0xaa, 0x3d, 0x52, 0x14, 0x39, 0x3b, 0xf3, 0xe9, 0x3f, 0xbe, 
0xcf, 0x88, 0x08, 0xbd, 0xae, 0x1b, 0xdc, 0xbd, 0xb3, 0xe2, 0xf4, 0x3c, 
0xe9, 0x35, 0xbd, 0x3e, 0x77, 0xef, 0xa7, 0xbd, 0x5b, 0x9f, 0x3c, 0xbe, 
0x7f, 0xf3, 0x9d, 0xbd, 0xf4, 0xbf, 0x2b, 0xba, 0x0b, 0xb1, 0x98, 0xbd, 
0xb6, 0x90, 0x10, 0x3d, 0xa5, 0xf3, 0xbe, 0x3d, 0x36, 0x85, 0x9d, 0x3d, 
0xfa, 0xeb, 0x84, 0x3e, 0x9a, 0x1c, 0x8d, 0xbd, 0xe4, 0x20, 0x9d, 0xbd, 
0x90, 0x49, 0x38, 0x3d, 0x8f, 0xb4, 0xd7, 0x3c, 0x42, 0x42, 0xce, 0x3c, 
0x2a, 0x78, 0xd7, 0x3d, 0x68, 0x64, 0xe2, 0x3d, 0x5e, 0xf3, 0xd5, 0x3d, 
0xd3, 0x12, 0x45, 0xbc, 0xf9, 0x4d, 0x54, 0x3d, 0xe8, 0x36, 0xd6, 0xbc, 
0x2c, 0x33, 0x34, 0xbe, 0xf3, 0x47, 0xaf, 0x3d, 0xb3, 0x2d, 0x07, 0xbe, 
0x8b, 0xab, 0x60, 0x3e, 0xc7, 0x18, 0xfc, 0x3d, 0x5f, 0x10, 0x56, 0x3d, 
0x17, 0x51, 0xe2, 0x3c, 0x2a, 0x9c, 0xb2, 0x3c, 0xd0, 0x24, 0xbd, 0x3b, 
0x60, 0x91, 0x0e, 0x3e, 0xb0, 0x6c, 0xc1, 0xbd, 0x2e, 0x4b, 0x01, 0x3e, 
0xc2, 0x45, 0xc0, 0x3c, 0xdc, 0x43, 0x02, 0xbc, 0xe4, 0x75, 0x81, 0xbd, 
0xd3, 0xed, 0x86, 0xbd, 0x82, 0xa8, 0xbf, 0xbd, 0x54, 0x58, 0x9c, 0x3d, 
0x2d, 0x78, 0x93, 0x3e, 0xd3, 0x55, 0x36, 0xbe, 0xb7, 0xf6, 0x39, 0xbe, 
0xdc, 0x30, 0xfb, 0x3d, 0xc5, 0xcd, 0x9f, 0x3d, 0x7b, 0xca, 0x17, 0x3d, 
0xf6, 0x80, 0xe9, 0x3c, 0x80, 0xa7, 0x39, 0xbd, 0x4a, 0x9b, 0x0d, 0x3e, 
0xb5, 0x9b, 0x1f, 0x3d, 0x11, 0x25, 0x8f, 0x3c, 0xdc, 0x31, 0x4d, 0xbd, 
0x74, 0x5b, 0xc2, 0x3e, 0x77, 0xf8, 0x9c, 0xbe, 0xde, 0xfd, 0x87, 0xbd, 
0x04, 0xb4, 0x16, 0xbe, 0x8d, 0x33, 0x8c, 0x3c, 0x8b, 0x89, 0x1a, 0xbe, 
0x88, 0x4f, 0xa8, 0xbb, 0x1e, 0xfb, 0x4b, 0x3e, 0x75, 0xbb, 0x2c, 0xbc, 
0x2c, 0x2a, 0xef, 0xbd, 0x07, 0x61, 0xbb, 0x3b, 0x38, 0xde, 0x22, 0xbe, 
0x5e, 0x77, 0xaf, 0xbd, 0x35, 0xf2, 0x5d, 0xbb, 0xfe, 0x7f, 0x30, 0x3d, 
0xa8, 0x2f, 0x01, 0x3e, 0x3e, 0xca, 0x02, 0xbd, 0x2e, 0xdc, 0x0f, 0x3d, 
0xbd, 0x88, 0x7d, 0xbd, 0x76, 0x36, 0x5c, 0xbd, 0x1f, 0x76, 0xbc, 0xbd, 
0x6a, 0x1b, 0x55, 0xbd, 0xa0, 0x19, 0x4e, 0xbe, 0x86, 0x5a, 0xe5, 0xbd, 
0xf7, 0x75, 0x30, 0x3e, 0x3e, 0xe1, 0x2a, 0xbc, 0xa8, 0x0a, 0x85, 0xbd, 
0x80, 0x42, 0x30, 0x3c, 0x04, 0x15, 0xb9, 0xbc, 0x31, 0xa2, 0x00, 0xbe, 
0x06, 0x65, 0xa1, 0x3d, 0x36, 0xf8, 0xaa, 0xbd, 0x2c, 0x29, 0xeb, 0xbd, 
0x3e, 0x9e, 0x80, 0xbd, 0x29, 0x1f, 0x43, 0x3d, 0x66, 0x8a, 0xd2, 0x3d, 
0x13, 0x52, 0x5f, 0x3d, 0x74, 0xd9, 0x0d, 0x3e, 0x69, 0xef, 0x02, 0xbe, 
0x64, 0x54, 0x34, 0xbb, 0xb5, 0xbf, 0xd7, 0x3d, 0x63, 0x92, 0x4f, 0xbc, 
0x7a, 0xfc, 0xb9, 0xbe, 0x45, 0x6e, 0x83, 0x3d, 0xd8, 0xf5, 0xad, 0xbd, 
0x03, 0xb4, 0xe3, 0xbd, 0x31, 0x8a, 0x85, 0xbd, 0x6e, 0xbb, 0x24, 0xbe, 
0x74, 0x78, 0xf4, 0xba, 0xd7, 0xd9, 0x35, 0xbe, 0xf3, 0x5f, 0xec, 0xbd, 
0x6b, 0xd2, 0x86, 0x3d, 0x8b, 0x7b, 0xb7, 0xbe, 0xc8, 0xa5, 0xb0, 0x3d, 
0x59, 0xce, 0x50, 0xbd, 0xcc, 0x75, 0x91, 0xbd, 0x28, 0x43, 0x8a, 0xbd, 
0xfd, 0x70, 0xd5, 0x3d, 0x81, 0x48, 0x82, 0xbd, 0x3d, 0x9e, 0x6c, 0x3d, 
0x38, 0xb5, 0x31, 0x3e, 0xc1, 0x4b, 0x1b, 0x3c, 0xda, 0x4d, 0x7e, 0xbb, 
0x7f, 0x22, 0xb9, 0x3d, 0x3b, 0xf9, 0x03, 0xbe, 0x08, 0x0b, 0xe6, 0xbd, 
0x34, 0x13, 0xb8, 0xbd, 0xea, 0x8d, 0x04, 0x3e, 0x55, 0x1a, 0xe6, 0x3d, 
0xff, 0xdc, 0xc1, 0xbb, 0x98, 0xd4, 0x85, 0x3d, 0xf4, 0xc6, 0x10, 0x3e, 
0xb1, 0x8c, 0x27, 0xbd, 0x93, 0x5c, 0xa5, 0x3d, 0xaf, 0x0b, 0x85, 0x3d, 
0x44, 0x12, 0xda, 0xbc, 0xc1, 0xe5, 0xb3, 0x3d, 0xe5, 0x97, 0x65, 0xbd, 
0x24, 0xd7, 0xf0, 0xbd, 0xcb, 0x4d, 0x17, 0x3e, 0x29, 0x56, 0x9a, 0xbe, 
0x52, 0x79, 0x21, 0xbd, 0x65, 0xb5, 0xcb, 0x3c, 0x18, 0xbd, 0x0c, 0x3c, 
0xba, 0x2a, 0x0a, 0xbe, 0x70, 0xea, 0x03, 0xbc, 0x6b, 0x9e, 0xf9, 0x3d, 
0x26, 0xeb, 0xff, 0xff, 0x04, 0x00, 0x00, 0x00, 0x00, 0x03, 0x00, 0x00, 
0xc7, 0x6e, 0x78, 0xbe, 0xf1, 0x82, 0x7a, 0xbe, 0x9e, 0xa1, 0x82, 0x3e, 
0xb4, 0x0f, 0x40, 0xbe, 0xa4, 0x04, 0x23, 0x3e, 0x60, 0x42, 0x30, 0xbd, 
0x6c, 0xd8, 0x52, 0x3e, 0x5c, 0x74, 0x7b, 0x3e, 0x98, 0xb2, 0x05, 0x3e, 
0x66, 0xfb, 0x4c, 0x3e, 0x18, 0x13, 0x89, 0x3d, 0xa0, 0x2a, 0x63, 0x3e, 
0x38, 0x83, 0x7a, 0x3d, 0x48, 0x5e, 0x20, 0xbd, 0xc6, 0x03, 0x28, 0x3e, 
0xbc, 0x25, 0x5e, 0x3e, 0x6c, 0x72, 0x32, 0x3e, 0x95, 0x40, 0x91, 0xbe, 
0x52, 0x6a, 0x88, 0xbd, 0xd0, 0xd2, 0x83, 0x3e, 0x5c, 0x89, 0x62, 0xbe, 
0x2f, 0xd2, 0x8d, 0xbe, 0x80, 0x3a, 0xd0, 0xbb, 0x5e, 0x89, 0x1d, 0xbe, 
0x00, 0x8d, 0x0c, 0xbc, 0xbc, 0x28, 0x4d, 0xbd, 0xd8, 0x26, 0x3d, 0xbd, 
0x4c, 0x7f, 0x59, 0xbe, 0x9e, 0xef, 0x3c, 0x3e, 0x34, 0x51, 0x11, 0x3e, 
0xdc, 0x80, 0x93, 0xbe, 0x36, 0x4c, 0xb9, 0xbd, 0x78, 0x8b, 0x6a, 0xbe, 
0x00, 0x6d, 0xce, 0xbb, 0x82, 0x85, 0x3f, 0x3e, 0x34, 0x68, 0x79, 0xbd, 
0x0d, 0x2f, 0x26, 0xbe, 0xc6, 0x8f, 0x65, 0xbe, 0x00, 0xd6, 0x73, 0x3c, 
0x80, 0x7a, 0x1f, 0xbe, 0x6c, 0xd4, 0xcc, 0x3d, 0x7a, 0x7f, 0xcc, 0xbd, 
0x38, 0x2e, 0xcc, 0x3d, 0xee, 0x13, 0xe8, 0xbd, 0x14, 0xc1, 0xf2, 0x3d, 
0x00, 0x5a, 0x84, 0x3e, 0x68, 0x13, 0xa6, 0x3d, 0x92, 0x39, 0xe2, 0xbd, 
0xd8, 0xd0, 0x0d, 0x3e, 0xd8, 0x7c, 0x5d, 0x3d, 0xfc, 0x06, 0x55, 0x3e, 
0x90, 0xfb, 0x55, 0x3d, 0xc0, 0xcf, 0x6f, 0x3c, 0xc0, 0x28, 0x86, 0x3e, 
0xce, 0x24, 0x17, 0x3e, 0x70, 0x17, 0x46, 0x3e, 0x3c, 0x5a, 0x4a, 0xbe, 
0x6c, 0x9c, 0x67, 0x3e, 0x50, 0xe5, 0x5d, 0x3e, 0x10, 0x4f, 0x32, 0x3d, 
0x06, 0x41, 0xd1, 0xbd, 0x20, 0x04, 0xe5, 0x3c, 0x1c, 0x03, 0x4d, 0xbd, 
0x14, 0x46, 0x7f, 0xbe, 0xcc, 0x50, 0x5c, 0x3e, 0x84, 0x93, 0xbd, 0x3d, 
0x60, 0xef, 0x29, 0x3e, 0x87, 0xbd, 0x1d, 0xbe, 0x3c, 0xe9, 0xd4, 0xbd, 
0x70, 0x7b, 0x73, 0x3e, 0x9c, 0x38, 0x1f, 0x3e, 0x36, 0xac, 0x5f, 0xbe, 
0x54, 0x84, 0x87, 0x3e, 0x0c, 0x00, 0x0f, 0x3e, 0x00, 0xed, 0x58, 0xbb, 
0xa0, 0xf3, 0xad, 0xbd, 0xa9, 0xaf, 0x17, 0xbe, 0xa6, 0x34, 0x3b, 0x3e, 
0x5e, 0x61, 0x7d, 0xbe, 0x20, 0xec, 0xa9, 0x3c, 0xe0, 0x66, 0x56, 0x3c, 
0x29, 0x53, 0x22, 0xbe, 0x80, 0xdb, 0xee, 0xbb, 0x38, 0xe2, 0xf2, 0x3d, 
0xbc, 0x5d, 0x80, 0xbd, 0xd7, 0x70, 0x2c, 0xbe, 0xa4, 0xa8, 0x9a, 0x3d, 
0x1c, 0xf9, 0x06, 0x3e, 0x0c, 0x79, 0x63, 0xbe, 0x00, 0x26, 0xa3, 0x3b, 
0x02, 0xab, 0x3c, 0x3e, 0xf0, 0x4b, 0x03, 0xbd, 0x66, 0x79, 0x55, 0xbe, 
0x70, 0xcb, 0xcf, 0x3d, 0x79, 0x37, 0x2a, 0xbe, 0xa0, 0xd6, 0xd9, 0xbd, 
0x8e, 0xbe, 0xd1, 0xbd, 0x00, 0x28, 0xdd, 0xba, 0x98, 0xd8, 0x2b, 0xbe, 
0x34, 0xdb, 0xb4, 0x3d, 0xda, 0xfb, 0x83, 0x3e, 0x14, 0xc2, 0x0c, 0x3e, 
0x98, 0x42, 0x98, 0xbe, 0x24, 0xf2, 0x0a, 0x3e, 0xfd, 0xa6, 0x95, 0xbe, 
0xeb, 0xf6, 0x8e, 0xbe, 0x0c, 0x90, 0x6a, 0xbe, 0x80, 0x3b, 0x56, 0xbb, 
0xc9, 0x1c, 0x12, 0xbe, 0x1e, 0xdd, 0x91, 0x3e, 0x00, 0xaf, 0x89, 0x3d, 
0x3a, 0x00, 0x92, 0x3e, 0x00, 0x90, 0x01, 0xb9, 0xb8, 0x75, 0xde, 0x3d, 
0x84, 0x3f, 0x76, 0x3e, 0xea, 0x14, 0x33, 0xbe, 0xfc, 0xa9, 0xd1, 0x3d, 
0x90, 0x99, 0x24, 0x3e, 0xa1, 0xb9, 0x78, 0xbe, 0x4c, 0x2d, 0x68, 0xbd, 
0xaf, 0x73, 0x19, 0xbe, 0xc3, 0xfd, 0x80, 0xbe, 0xb4, 0x83, 0x95, 0x3d, 
0x24, 0x36, 0x7e, 0xbd, 0x00, 0xc1, 0xe6, 0xba, 0x18, 0x95, 0x1f, 0x3d, 
0x78, 0x53, 0x1e, 0xbd, 0x30, 0x1c, 0x0b, 0xbe, 0x08, 0xbe, 0x7b, 0xbd, 
0xc4, 0x5a, 0x66, 0xbd, 0x22, 0x13, 0x12, 0x3e, 0x5d, 0xef, 0x36, 0xbe, 
0x48, 0xf9, 0x2f, 0xbd, 0x80, 0xa8, 0xf8, 0x3b, 0x66, 0x2a, 0x87, 0xbe, 
0xe4, 0xfe, 0xfe, 0x3d, 0x72, 0x4f, 0x8e, 0x3e, 0x43, 0x65, 0x97, 0xbe, 
0xba, 0xaa, 0x2c, 0x3e, 0xc8, 0xa4, 0x95, 0xbe, 0xdc, 0x57, 0x55, 0x3e, 
0x20, 0x32, 0x92, 0xbd, 0x8a, 0x31, 0x36, 0x3e, 0x84, 0x69, 0xc5, 0x3d, 
0x46, 0x88, 0x36, 0x3e, 0x47, 0x8b, 0x34, 0xbe, 0xfc, 0xa2, 0x92, 0xbe, 
0x18, 0xa6, 0x45, 0x3e, 0xf4, 0x11, 0xe2, 0x3d, 0xf4, 0x1f, 0x95, 0x3e, 
0x56, 0x9f, 0x14, 0x3e, 0xac, 0xcd, 0x4c, 0x3e, 0x04, 0xe2, 0x3c, 0xbe, 
0xd0, 0xb1, 0xe1, 0xbc, 0x10, 0xb1, 0x94, 0x3e, 0xf0, 0xfd, 0x2f, 0xbd, 
0xec, 0xd3, 0x0a, 0x3e, 0x30, 0x80, 0x81, 0x3e, 0x60, 0xa8, 0x8c, 0x3d, 
0x7d, 0x8a, 0x90, 0xbe, 0x30, 0xc9, 0xb1, 0x3c, 0x5c, 0x82, 0x73, 0x3e, 
0x28, 0xe4, 0x7d, 0xbe, 0x2c, 0xab, 0x53, 0x3e, 0x92, 0x26, 0x25, 0x3e, 
0x80, 0xbf, 0x7a, 0x3e, 0x6c, 0x96, 0x76, 0x3e, 0xe6, 0x1b, 0x34, 0xbe, 
0xb0, 0x7a, 0xde, 0xbc, 0xc1, 0xea, 0x03, 0xbe, 0xe2, 0x09, 0x79, 0xbe, 
0x3e, 0x47, 0xf1, 0xbd, 0xbc, 0xeb, 0x50, 0xbd, 0x50, 0x18, 0x13, 0x3e, 
0xae, 0xd6, 0x1b, 0x3e, 0x58, 0x2d, 0x58, 0x3e, 0x8f, 0x38, 0x59, 0xbe, 
0x00, 0xb0, 0x9d, 0x3a, 0xc8, 0xe8, 0xfa, 0x3d, 0x2c, 0x2c, 0xd7, 0x3d, 
0x6b, 0xd6, 0x85, 0xbe, 0xaa, 0xd2, 0x5f, 0xbe, 0x00, 0x40, 0x95, 0xb9, 
0x90, 0x08, 0x51, 0x3e, 0x62, 0x7e, 0x8f, 0x3e, 0xac, 0x1b, 0x5e, 0xbd, 
0x94, 0x12, 0x61, 0x3e, 0x94, 0x6c, 0x60, 0x3e, 0x80, 0xec, 0x27, 0x3d, 
0x50, 0x1b, 0x11, 0xbd, 0x10, 0xb0, 0x32, 0xbe, 0x48, 0x85, 0xd7, 0x3d, 
0x32, 0xee, 0xff, 0xff, 0x04, 0x00, 0x00, 0x00, 0x00, 0x04, 0x00, 0x00, 
0xc0, 0xb5, 0xf1, 0xbd, 0x98, 0x22, 0xa6, 0x3c, 0x41, 0xf0, 0x4b, 0x3c, 
0x93, 0x0d, 0x90, 0xbe, 0x39, 0xc8, 0x17, 0x3e, 0x58, 0x0c, 0xc9, 0xbe, 
0xc7, 0xfa, 0x63, 0x3d, 0xeb, 0x34, 0x4f, 0xbe, 0x08, 0xfd, 0xae, 0xbd, 
0xd3, 0x2f, 0x64, 0xbd, 0x9e, 0x2a, 0xc2, 0x3d, 0xa3, 0xe9, 0xe8, 0xbc, 
0xb4, 0xad, 0x31, 0x3e, 0x00, 0x36, 0x41, 0xb8, 0x38, 0xe9, 0x5f, 0x3d, 
0x68, 0x59, 0x0d, 0x3e, 0xd5, 0x24, 0x7f, 0xbe, 0x6f, 0x6f, 0x4e, 0x3e, 
0xea, 0xab, 0x0f, 0xbe, 0x04, 0x16, 0xb6, 0x3d, 0x3c, 0xff, 0x7c, 0xbe, 
0xe0, 0xf7, 0x34, 0xbc, 0x46, 0xc6, 0x34, 0xbe, 0x34, 0x4f, 0x81, 0xbe, 
0xd7, 0x00, 0x0e, 0xbe, 0x27, 0x25, 0x27, 0x3e, 0x85, 0x0f, 0x01, 0xbd, 
0xdb, 0xcd, 0x33, 0x3e, 0x60, 0x01, 0xad, 0xbd, 0x2f, 0xda, 0x5b, 0xbe, 
0xdd, 0x08, 0x27, 0x3e, 0xed, 0x1d, 0x8b, 0x3d, 0x07, 0xde, 0x13, 0x3d, 
0x77, 0x79, 0x0f, 0xbd, 0x98, 0xc6, 0x84, 0xbc, 0xa7, 0xea, 0xb8, 0x3e, 
0x8f, 0x97, 0x0e, 0x3e, 0x34, 0xed, 0xe0, 0xbc, 0x5a, 0x0a, 0x4a, 0x3e, 
0x99, 0x57, 0xa0, 0xbd, 0x3f, 0xce, 0x8c, 0xbc, 0x62, 0x59, 0x44, 0x3e, 
0xcc, 0x07, 0x00, 0xbe, 0xbc, 0x0b, 0xa7, 0x3d, 0x87, 0xd5, 0x5a, 0xbd, 
0x4c, 0x17, 0x1d, 0xbe, 0x4f, 0x7d, 0x89, 0xbe, 0x19, 0x77, 0x57, 0xbd, 
0xad, 0x68, 0x31, 0x3e, 0xcf, 0x3f, 0x6e, 0x3d, 0xb6, 0xc0, 0x6e, 0xbd, 
0x5c, 0x28, 0x8c, 0x3e, 0x52, 0xd1, 0x6d, 0xbd, 0xa4, 0x11, 0xdb, 0xbd, 
0x50, 0xed, 0xa7, 0x3a, 0x67, 0x78, 0x6a, 0xbe, 0x2b, 0x20, 0xd8, 0xbd, 
0x6c, 0xff, 0xac, 0x3c, 0x6b, 0x37, 0xc5, 0xbe, 0xce, 0xa5, 0x95, 0xbd, 
0x28, 0x14, 0x3d, 0x3d, 0x01, 0x87, 0x7a, 0x3e, 0x75, 0xc7, 0xf3, 0x3d, 
0xaa, 0xc5, 0xdb, 0x3c, 0x41, 0xa4, 0xc8, 0x3d, 0x69, 0x32, 0xd9, 0x3d, 
0x79, 0x48, 0xaa, 0x3e, 0x5e, 0x4c, 0x5a, 0xbd, 0xc4, 0xc3, 0x10, 0x3f, 
0x1c, 0xa8, 0xb7, 0x3d, 0x44, 0xab, 0x5d, 0xbe, 0x38, 0x48, 0x79, 0xbe, 
0x49, 0xc1, 0xfc, 0xbd, 0x16, 0xef, 0x5a, 0x3e, 0x90, 0x8c, 0x0c, 0xbe, 
0x76, 0x00, 0x6e, 0xbd, 0x76, 0x21, 0x72, 0xbe, 0xda, 0x67, 0x8f, 0x3e, 
0x56, 0x0c, 0x44, 0x3b, 0x14, 0x02, 0xb8, 0x3d, 0x4b, 0x7f, 0xd7, 0xbd, 
0xf7, 0x37, 0xc1, 0x3e, 0x50, 0x2c, 0x92, 0xbc, 0x55, 0x98, 0x62, 0x3e, 
0x6c, 0x1d, 0x98, 0x3d, 0x34, 0x04, 0x43, 0xbe, 0x34, 0x39, 0x53, 0xbd, 
0xa8, 0xe8, 0x7f, 0x3e, 0xf0, 0x12, 0x18, 0x3f, 0x7f, 0x63, 0x51, 0xbc, 
0x07, 0x93, 0xaa, 0xbe, 0xd0, 0xd4, 0x2a, 0xbc, 0x46, 0x95, 0x1e, 0x3d, 
0x68, 0xdc, 0xcc, 0xbd, 0x4e, 0xe9, 0x53, 0xbe, 0x42, 0x24, 0x37, 0x3e, 
0x16, 0x8e, 0xa0, 0xbd, 0xbc, 0x48, 0x87, 0x3e, 0x9e, 0x6d, 0xa5, 0xbc, 
0x60, 0x83, 0x98, 0x3e, 0x59, 0x62, 0xe1, 0x3c, 0xdb, 0x42, 0x10, 0x3e, 
0x48, 0x92, 0x42, 0x3e, 0xc6, 0xfc, 0x16, 0xbe, 0x37, 0xb3, 0xc5, 0x3e, 
0x93, 0x91, 0x33, 0x3e, 0xcd, 0xb8, 0xbb, 0x3e, 0xe0, 0x42, 0xc8, 0x3c, 
0xd1, 0xbd, 0xa0, 0xbd, 0xc0, 0x78, 0x4e, 0xbd, 0xd8, 0x18, 0x51, 0x3e, 
0x9c, 0x1b, 0x72, 0xbd, 0xc3, 0x67, 0x0a, 0x3e, 0xdc, 0x22, 0x85, 0x3e, 
0x03, 0x08, 0xd4, 0x3d, 0x72, 0xf4, 0x5f, 0x3d, 0x41, 0x71, 0x2b, 0x3e, 
0x0a, 0xd1, 0xc9, 0x3e, 0x84, 0xb3, 0x0d, 0xbc, 0x3b, 0x19, 0x0e, 0x3d, 
0xf6, 0xc7, 0x8f, 0x3d, 0x7e, 0xc7, 0xf6, 0x3d, 0xa2, 0xfe, 0x31, 0x3e, 
0x60, 0xc1, 0x76, 0xbe, 0xed, 0xad, 0x8f, 0xbe, 0xfa, 0x94, 0x22, 0x3e, 
0xd7, 0x8b, 0x36, 0xbe, 0xe6, 0xff, 0xe4, 0xbd, 0x9b, 0xb9, 0x96, 0xbd, 
0xb8, 0x1f, 0x16, 0x3e, 0x86, 0xab, 0x7b, 0xbe, 0xd0, 0xe2, 0x13, 0x3d, 
0x0b, 0x2a, 0x17, 0x3e, 0xee, 0x64, 0x55, 0xbe, 0x73, 0xd5, 0xef, 0xbd, 
0xc9, 0xc8, 0x33, 0x3e, 0x16, 0x5c, 0x97, 0x3d, 0x92, 0x43, 0x44, 0xbe, 
0x38, 0xeb, 0x1f, 0x3d, 0x08, 0xd6, 0x1c, 0x3d, 0x60, 0x0d, 0xeb, 0xba, 
0x13, 0x9f, 0x8a, 0x3e, 0x4c, 0x52, 0xb9, 0xbe, 0xe4, 0x40, 0x1f, 0x3e, 
0xe2, 0xec, 0xb3, 0xbd, 0x26, 0x51, 0xb9, 0xbd, 0x47, 0xca, 0x1a, 0x3d, 
0x01, 0x8c, 0x06, 0x3e, 0x35, 0x51, 0xce, 0xbd, 0x88, 0xf2, 0x1d, 0x3e, 
0x3a, 0xd8, 0x58, 0xbe, 0x40, 0xb0, 0x78, 0x3e, 0x76, 0x96, 0x4f, 0xbe, 
0xfa, 0xfe, 0xbc, 0xbd, 0x3e, 0x3a, 0x15, 0xbd, 0xf4, 0xb1, 0xf3, 0xbd, 
0xc9, 0xb8, 0x80, 0x3d, 0xe0, 0x54, 0x42, 0x3b, 0x3a, 0x6e, 0x48, 0x3b, 
0x76, 0x8d, 0xe3, 0x3d, 0x0c, 0x40, 0x69, 0x3e, 0x64, 0x5b, 0xae, 0x3e, 
0xfb, 0x99, 0x02, 0xbe, 0xb7, 0xc7, 0x08, 0xbe, 0xdc, 0xa8, 0x9d, 0x3d, 
0x16, 0xb6, 0x87, 0x3d, 0xed, 0x4b, 0x76, 0x3e, 0xee, 0x3d, 0x99, 0xbd, 
0x62, 0xb0, 0x40, 0x3e, 0xc4, 0x1f, 0x9e, 0xbd, 0xc6, 0x94, 0xb7, 0x3c, 
0x60, 0x6e, 0xfe, 0x3c, 0xd6, 0xf3, 0x9a, 0xbe, 0x15, 0x70, 0xb1, 0xbd, 
0x18, 0x6f, 0x6d, 0x3e, 0xa8, 0x46, 0xbb, 0x3d, 0xe0, 0xa6, 0x02, 0xbe, 
0xb2, 0x27, 0x2e, 0xbd, 0x40, 0x51, 0xd3, 0x3d, 0xd5, 0x4a, 0x9a, 0x3e, 
0xae, 0x1f, 0xa8, 0x3d, 0xe0, 0x90, 0x83, 0x3e, 0x24, 0x69, 0x9c, 0xbc, 
0xd5, 0xc7, 0xb0, 0x3d, 0x62, 0xf0, 0xd4, 0x3d, 0x34, 0x83, 0x37, 0xbe, 
0xbd, 0x31, 0x0f, 0xbe, 0x46, 0xa1, 0x61, 0x3e, 0xb5, 0x75, 0x96, 0x3d, 
0xee, 0xf0, 0xef, 0x3c, 0x05, 0x27, 0x58, 0x3d, 0x44, 0x7b, 0x91, 0x3d, 
0x4c, 0x98, 0x03, 0x3e, 0xe4, 0xe7, 0xd9, 0x3d, 0x2e, 0xf3, 0x21, 0x3e, 
0xbd, 0x45, 0x4a, 0xbd, 0x7d, 0xf2, 0x5e, 0xbe, 0xd1, 0x94, 0x4a, 0xbe, 
0x7e, 0xc4, 0x67, 0xbc, 0xac, 0x04, 0x75, 0x3e, 0x09, 0x66, 0xdf, 0xbd, 
0x24, 0x62, 0xa5, 0x3c, 0x42, 0x2a, 0x19, 0xbe, 0x3d, 0xda, 0xd3, 0x3c, 
0x64, 0xa5, 0x5c, 0x3e, 0x1c, 0xc0, 0xd6, 0xbd, 0xd8, 0xaf, 0xbb, 0xbc, 
0x0f, 0x84, 0x11, 0xbe, 0xeb, 0x0c, 0x4f, 0x3e, 0x70, 0x8d, 0xf9, 0x3d, 
0x5d, 0x09, 0xd6, 0xbe, 0xb0, 0x47, 0xfc, 0xbc, 0x57, 0x47, 0x2f, 0x3e, 
0x0c, 0x4a, 0xd5, 0x3d, 0xf4, 0x89, 0x96, 0xbd, 0x8b, 0xc6, 0x58, 0xbd, 
0x40, 0xe4, 0x1c, 0xbd, 0xe3, 0x97, 0x22, 0xbe, 0x08, 0x65, 0x85, 0xbd, 
0xcb, 0x37, 0x09, 0x3e, 0xee, 0x30, 0x1f, 0xbd, 0xa1, 0xa2, 0x31, 0x3e, 
0xd4, 0x80, 0xb3, 0x3e, 0xe4, 0x30, 0x48, 0xbe, 0x8f, 0xda, 0xca, 0x3d, 
0x70, 0xef, 0x7c, 0x3d, 0x9c, 0x44, 0xb4, 0xbd, 0x4a, 0x7a, 0xa7, 0xbd, 
0xe0, 0xdb, 0x84, 0xbe, 0x35, 0x5c, 0x20, 0x3e, 0x12, 0x0d, 0xc4, 0xbd, 
0x0a, 0xfb, 0xda, 0xbe, 0x09, 0xda, 0x79, 0xbc, 0xde, 0x33, 0xb4, 0x3e, 
0xb1, 0xfc, 0x1e, 0x3e, 0x47, 0x91, 0xa2, 0x3c, 0x82, 0x45, 0xa3, 0xbb, 
0x43, 0x3d, 0xb1, 0x3d, 0xfe, 0x97, 0xbb, 0x3d, 0x6c, 0xff, 0xac, 0x3e, 
0x2d, 0xb5, 0xc3, 0xbc, 0xbf, 0x2a, 0xca, 0x3d, 0x80, 0x40, 0x01, 0x3e, 
0x4d, 0x14, 0xb5, 0x3e, 0x61, 0x63, 0x03, 0xbe, 0x3c, 0x59, 0x12, 0xbe, 
0x20, 0x6a, 0xcb, 0xbe, 0x5e, 0x27, 0x4d, 0xbe, 0xf6, 0x3e, 0x37, 0x3e, 
0xce, 0x62, 0x95, 0xbe, 0x10, 0x22, 0x50, 0x3c, 0xfe, 0x1f, 0xab, 0x3e, 
0x72, 0xed, 0x22, 0xbd, 0xa4, 0x0a, 0x97, 0xbd, 0x9f, 0xeb, 0x3f, 0x3c, 
0xe8, 0x98, 0x97, 0xbc, 0x3e, 0xf2, 0xff, 0xff, 0x04, 0x00, 0x00, 0x00, 
0x00, 0x08, 0x00, 0x00, 0x88, 0x7d, 0x0d, 0xbd, 0x89, 0x9b, 0x58, 0xbe, 
0xb8, 0x17, 0x74, 0xbd, 0x5c, 0xb8, 0x56, 0xbe, 0x20, 0x17, 0x21, 0x3c, 
0x90, 0xed, 0xe0, 0x3d, 0xd5, 0xf9, 0x17, 0xbe, 0x35, 0xb0, 0x56, 0xbe, 
0x10, 0x0c, 0x8c, 0x3c, 0x1e, 0x08, 0x7f, 0x3e, 0x80, 0x33, 0xb4, 0x3c, 
0xf0, 0x09, 0x8b, 0x3d, 0xb0, 0x09, 0xe3, 0xbc, 0xbe, 0x58, 0x70, 0xbe, 
0xae, 0x0e, 0xea, 0xbd, 0xc9, 0x53, 0xa4, 0x3e, 0x00, 0xd5, 0x12, 0x3e, 
0x38, 0x5a, 0xd3, 0x3d, 0xb4, 0x64, 0x27, 0xbe, 0xeb, 0xed, 0xa6, 0x3e, 
0xd6, 0x4d, 0x11, 0xbe, 0x12, 0xaf, 0x9f, 0xbe, 0x59, 0xa0, 0x93, 0x3e, 
0xe5, 0xe2, 0x06, 0xbe, 0x2e, 0xeb, 0x4a, 0xbe, 0x85, 0x9c, 0xa5, 0x3e, 
0x20, 0x10, 0x3d, 0x3d, 0xb2, 0xcb, 0x6f, 0x3e, 0x73, 0x3d, 0x91, 0x3e, 
0x0d, 0xd1, 0xa4, 0xbe, 0xb6, 0x9e, 0x30, 0x3e, 0x5d, 0x0c, 0x85, 0x3e, 
0x9f, 0x71, 0x98, 0xbe, 0x13, 0x16, 0x9a, 0xbe, 0x0f, 0x03, 0xb3, 0xbe, 
0x8a, 0x8f, 0x52, 0x3e, 0x88, 0x3c, 0x69, 0x3d, 0x10, 0x28, 0x55, 0x3d, 
0xc2, 0xd7, 0x0a, 0x3e, 0xee, 0xae, 0x23, 0x3e, 0xdc, 0xf6, 0x8f, 0xbe, 
0x96, 0x41, 0x57, 0x3e, 0x26, 0xae, 0x7d, 0x3e, 0x4c, 0x41, 0x0f, 0xbe, 
0xe9, 0xe9, 0xb2, 0x3e, 0x30, 0x54, 0xf5, 0x3c, 0xa8, 0x0c, 0x8a, 0xbe, 
0x16, 0x1f, 0xed, 0xbd, 0x13, 0x1b, 0x3c, 0xbe, 0xc7, 0xd7, 0x87, 0xbe, 
0x4d, 0x60, 0xaf, 0x3e, 0x91, 0x41, 0x5a, 0xbe, 0x60, 0xe3, 0xfa, 0x3c, 
0x02, 0xa4, 0x72, 0x3e, 0xd5, 0x0d, 0x9e, 0x3e, 0x34, 0x28, 0xa7, 0xbe, 
0xc4, 0x34, 0xad, 0xbd, 0x3a, 0x19, 0x1d, 0x3e, 0xc9, 0xd3, 0x96, 0xbe, 
0x27, 0x3f, 0x9a, 0x3e, 0xa2, 0x3e, 0x48, 0x3e, 0xa6, 0x5b, 0x3f, 0x3e, 
0x80, 0xe0, 0x04, 0x3e, 0x9e, 0xe2, 0x79, 0x3e, 0xbe, 0xab, 0x0e, 0x3e, 
0xf1, 0x10, 0xab, 0x3e, 0x53, 0xf7, 0x19, 0xbe, 0x7c, 0x7b, 0x49, 0xbe, 
0x74, 0xaa, 0x68, 0xbe, 0xe1, 0x2f, 0x0c, 0xbe, 0x00, 0x2e, 0xc7, 0x3c, 
0x87, 0x27, 0xab, 0x3e, 0x58, 0xe3, 0x9e, 0xbd, 0x94, 0x5c, 0x91, 0xbe, 
0x6a, 0xbd, 0xa0, 0xbe, 0xf8, 0x8e, 0x97, 0xbe, 0x3f, 0xa0, 0xa7, 0x3e, 
0x38, 0x04, 0xb9, 0xbd, 0x5d, 0x3a, 0x88, 0x3e, 0x8f, 0xd7, 0x24, 0xbe, 
0xda, 0x7f, 0x3e, 0x3e, 0x40, 0x19, 0x71, 0x3c, 0x3c, 0xfa, 0x40, 0xbe, 
0xec, 0xc1, 0x4a, 0xbe, 0x10, 0x4b, 0xd2, 0xbc, 0xfa, 0xb2, 0xd9, 0xbd, 
0x0b, 0x58, 0x05, 0xbe, 0xbe, 0xe1, 0x7e, 0x3e, 0x6c, 0xc8, 0x82, 0xbe, 
0x06, 0x41, 0x57, 0x3e, 0x52, 0x58, 0x2c, 0x3e, 0x60, 0x35, 0x1c, 0xbd, 
0x45, 0xc3, 0x9c, 0x3e, 0x8c, 0xd3, 0xc7, 0xbd, 0x92, 0xcd, 0x6c, 0x3e, 
0x9a, 0xfa, 0x3e, 0x3e, 0x75, 0x2c, 0x29, 0xbe, 0x35, 0x47, 0xb1, 0xbe, 
0x7c, 0x59, 0xc2, 0xbd, 0x7f, 0x58, 0x5b, 0xbe, 0xed, 0x08, 0xaf, 0x3e, 
0xce, 0xd8, 0x36, 0x3e, 0x44, 0xca, 0xc7, 0xbd, 0x6c, 0xaf, 0x82, 0xbe, 
0x00, 0xb4, 0x1a, 0x3d, 0x00, 0x34, 0x41, 0xbd, 0x5d, 0x55, 0xb4, 0x3e, 
0xd4, 0xb9, 0x99, 0xbe, 0x69, 0x9a, 0x83, 0x3e, 0xd3, 0xd3, 0x91, 0xbe, 
0x03, 0xf5, 0x46, 0xbe, 0x54, 0x32, 0xd9, 0x3d, 0xe8, 0xfc, 0xe6, 0x3d, 
0x58, 0x77, 0x20, 0xbe, 0x90, 0x5c, 0xfd, 0x3d, 0xd0, 0x37, 0x30, 0x3d, 
0x70, 0xe9, 0x32, 0xbd, 0xc2, 0x47, 0xf3, 0xbd, 0x90, 0x71, 0xa9, 0xbe, 
0xc0, 0xe9, 0x75, 0xbc, 0x0e, 0x4b, 0x2a, 0xbe, 0x6a, 0x1f, 0x2d, 0x3e, 
0x82, 0x7d, 0x0b, 0x3e, 0x1b, 0x09, 0xb3, 0x3e, 0x78, 0xfb, 0x1b, 0xbe, 
0xbd, 0xfb, 0x05, 0xbe, 0x0d, 0x7a, 0xa6, 0x3e, 0x20, 0xb2, 0x46, 0xbe, 
0x9e, 0xf9, 0x3b, 0x3e, 0x9b, 0x70, 0x94, 0x3e, 0xce, 0x6f, 0x03, 0x3e, 
0x00, 0xf9, 0x9b, 0x3a, 0x59, 0x82, 0x03, 0xbe, 0x90, 0x8e, 0x97, 0xbe, 
0xa8, 0x71, 0x05, 0x3e, 0x1c, 0x47, 0xbd, 0xbd, 0xea, 0xd5, 0x27, 0x3e, 
0x38, 0xc7, 0x00, 0x3e, 0x06, 0x97, 0x2f, 0x3e, 0xe8, 0xdb, 0xc7, 0xbd, 
0x51, 0xfa, 0x67, 0xbe, 0xdc, 0x27, 0x0c, 0x3e, 0xb8, 0x16, 0x95, 0xbe, 
0x91, 0x94, 0x12, 0xbe, 0xb0, 0xb2, 0xe0, 0x3d, 0xa4, 0x04, 0xd2, 0xbd, 
0xda, 0xf3, 0x4f, 0x3e, 0x4d, 0x63, 0xab, 0x3e, 0x3a, 0x90, 0x02, 0x3e, 
0x5a, 0x70, 0x1e, 0x3e, 0x62, 0xe4, 0xa0, 0xbe, 0x4c, 0xb2, 0xa9, 0x3d, 
0x70, 0xaf, 0xec, 0x3c, 0x2f, 0x61, 0xac, 0x3e, 0x60, 0x88, 0x42, 0x3d, 
0x1b, 0xe3, 0xae, 0xbe, 0x48, 0xf8, 0xcd, 0xbd, 0x16, 0xbf, 0x3c, 0x3e, 
0xbc, 0x10, 0x0d, 0x3e, 0x0a, 0xc4, 0x5c, 0xbe, 0xb5, 0x4b, 0x91, 0x3e, 
0x2d, 0x68, 0x8f, 0xbe, 0x2a, 0x87, 0x4f, 0xbe, 0xb4, 0x6a, 0x91, 0xbd, 
0x40, 0x97, 0xb7, 0x3b, 0x80, 0xc6, 0xda, 0xbb, 0x53, 0x7d, 0xa0, 0xbe, 
0x96, 0x88, 0xac, 0xbe, 0x6d, 0x7f, 0x15, 0xbe, 0xec, 0xd5, 0xf3, 0x3d, 
0x2f, 0x1d, 0x80, 0x3e, 0x50, 0xdd, 0xc8, 0xbc, 0x1b, 0x8d, 0x43, 0xbe, 
0xaa, 0x7b, 0x5d, 0x3e, 0xcb, 0x59, 0x9d, 0x3e, 0x00, 0x26, 0xea, 0x3c, 
0xe9, 0x18, 0xb3, 0x3e, 0x30, 0xb2, 0xa5, 0x3d, 0x1c, 0x1b, 0x8e, 0xbe, 
0xf0, 0x72, 0xe6, 0xbd, 0x6e, 0x71, 0x39, 0x3e, 0xe2, 0xfb, 0x2d, 0x3e, 
0x00, 0x2b, 0x5f, 0xbe, 0x7b, 0xa4, 0x8d, 0xbe, 0xec, 0x53, 0xf4, 0xbd, 
0x2c, 0xcd, 0x92, 0xbd, 0x2f, 0x2f, 0x8a, 0x3e, 0x60, 0x04, 0x13, 0x3e, 
0x28, 0x6c, 0x04, 0x3e, 0x1b, 0x72, 0x36, 0xbe, 0xd0, 0x90, 0xb2, 0xbd, 
0xe3, 0xb0, 0x5b, 0xbe, 0x82, 0x1f, 0x65, 0x3e, 0xe0, 0x9a, 0x4f, 0xbc, 
0x64, 0xc0, 0x8c, 0x3d, 0xe4, 0x3d, 0xf8, 0x3d, 0xa0, 0xb8, 0x84, 0xbe, 
0x32, 0xf9, 0x28, 0x3e, 0xf4, 0xa8, 0x9b, 0xbd, 0x02, 0x89, 0x3f, 0x3e, 
0x98, 0x30, 0x09, 0xbd, 0xf0, 0xa6, 0x2c, 0xbd, 0xaf, 0xc9, 0xb4, 0x3e, 
0x3a, 0x33, 0x38, 0xbe, 0x2e, 0x74, 0x75, 0x3e, 0x52, 0xa6, 0x29, 0x3e, 
0xae, 0x47, 0x57, 0xbe, 0xbd, 0xc1, 0xb1, 0x3e, 0xa5, 0x84, 0x99, 0x3e, 
0xe5, 0xf7, 0x2f, 0xbe, 0xd0, 0xa5, 0x69, 0x3d, 0x4b, 0xfe, 0x91, 0x3e, 
0xba, 0xef, 0x21, 0xbe, 0x56, 0x1e, 0x0c, 0x3e, 0x34, 0x1f, 0x8b, 0xbd, 
0x89, 0xaa, 0xac, 0x3e, 0xc9, 0x0c, 0x54, 0xbe, 0x60, 0x55, 0x23, 0xbc, 
0x24, 0xb9, 0x09, 0x3e, 0x00, 0x03, 0xc4, 0x3a, 0x89, 0xf5, 0x88, 0x3e, 
0x94, 0x9f, 0x80, 0x3d, 0xcc, 0x02, 0xa1, 0x3d, 0x7f, 0xf3, 0xa4, 0x3e, 
0x32, 0x76, 0x1f, 0x3e, 0x75, 0x6b, 0xa2, 0xbe, 0xfa, 0xa8, 0x8b, 0xbe, 
0x13, 0xb3, 0x96, 0x3e, 0x28, 0xde, 0xae, 0xbe, 0x86, 0x0e, 0xeb, 0xbd, 
0x2e, 0x22, 0x52, 0x3e, 0x64, 0xb4, 0xc2, 0xbd, 0x8d, 0xb3, 0x15, 0xbe, 
0xa0, 0xc8, 0xef, 0x3c, 0x72, 0x6b, 0xa2, 0xbe, 0x05, 0xf7, 0x53, 0xbe, 
0xf0, 0x1e, 0x9a, 0x3c, 0xb0, 0x6c, 0xbe, 0x3d, 0xa8, 0xd1, 0x0b, 0xbd, 
0x0b, 0x60, 0x09, 0xbe, 0x10, 0x77, 0xd9, 0xbc, 0xe7, 0x22, 0xaf, 0x3e, 
0x60, 0x10, 0x64, 0xbc, 0x1f, 0xad, 0xb3, 0x3e, 0x5a, 0x05, 0x77, 0x3e, 
0xe2, 0x91, 0x1b, 0x3e, 0xf3, 0x96, 0x93, 0x3e, 0x40, 0x44, 0xe2, 0xbc, 
0x8e, 0x53, 0x9f, 0xbe, 0x9c, 0x23, 0xc7, 0x3d, 0x4b, 0xc8, 0x62, 0xbe, 
0xd9, 0x6f, 0x7e, 0xbe, 0x4e, 0x17, 0x50, 0x3e, 0x82, 0x28, 0x90, 0xbe, 
0x80, 0x06, 0x30, 0x3c, 0xba, 0x1c, 0x41, 0x3e, 0x48, 0x5e, 0x39, 0x3d, 
0x66, 0x89, 0x8f, 0xbe, 0xfe, 0x07, 0x0c, 0xbe, 0x12, 0x43, 0x73, 0x3e, 
0x46, 0xb3, 0x9e, 0xbe, 0xe0, 0x13, 0x64, 0x3c, 0xb4, 0x94, 0xe4, 0x3d, 
0x40, 0x22, 0xc7, 0xbd, 0x10, 0x67, 0xe4, 0x3d, 0x72, 0xc9, 0x87, 0xbe, 
0x50, 0x4f, 0xd4, 0x3d, 0x56, 0x29, 0x6c, 0x3e, 0x12, 0x6c, 0x5f, 0x3e, 
0x05, 0x79, 0xa8, 0x3e, 0xfe, 0x14, 0x6c, 0xbe, 0x44, 0xd4, 0x24, 0xbe, 
0xb7, 0xda, 0x8d, 0x3e, 0x90, 0x4e, 0xf9, 0x3c, 0x62, 0x94, 0x74, 0x3e, 
0xec, 0x38, 0x0b, 0x3e, 0xb5, 0x37, 0x8b, 0xbe, 0x0f, 0x4e, 0xb0, 0x3e, 
0x98, 0x82, 0x8f, 0xbe, 0x52, 0xe4, 0x6d, 0x3e, 0x41, 0xe4, 0x8c, 0x3e, 
0xf6, 0xd8, 0x1e, 0xbe, 0x06, 0x10, 0x8c, 0xbe, 0x64, 0x3e, 0xa6, 0xbe, 
0x50, 0x12, 0xa4, 0xbd, 0x60, 0xe5, 0xde, 0x3c, 0x84, 0xab, 0x0b, 0xbe, 
0x5f, 0x55, 0x48, 0xbe, 0x00, 0xba, 0xfc, 0xbc, 0x96, 0x6b, 0x14, 0xbe, 
0xa7, 0x86, 0x93, 0x3e, 0x58, 0x26, 0xf8, 0x3d, 0x40, 0xa0, 0x91, 0xbe, 
0xfe, 0x71, 0x10, 0x3e, 0xa0, 0xca, 0x80, 0xbc, 0x0e, 0xe7, 0xad, 0xbe, 
0x40, 0xdf, 0x2f, 0x3c, 0x2f, 0x98, 0x82, 0xbe, 0x04, 0x15, 0xd6, 0xbd, 
0x8b, 0x8a, 0x83, 0x3e, 0x89, 0x56, 0x82, 0x3e, 0xc0, 0xa6, 0x12, 0xbe, 
0xc7, 0xe6, 0x98, 0x3e, 0x41, 0xfe, 0x45, 0xbe, 0x40, 0x89, 0xce, 0x3b, 
0x5b, 0xb6, 0xa4, 0x3e, 0x62, 0x0a, 0x90, 0xbe, 0x90, 0x72, 0x15, 0x3e, 
0x30, 0xee, 0x05, 0x3d, 0x8e, 0xb2, 0x15, 0x3e, 0xd9, 0x08, 0x9a, 0xbe, 
0xa9, 0xea, 0x76, 0xbe, 0xe6, 0xc9, 0x26, 0x3e, 0x93, 0x93, 0xb1, 0x3e, 
0xad, 0x8d, 0xb3, 0xbe, 0x2f, 0x0f, 0x84, 0x3e, 0xd5, 0xbf, 0xa3, 0xbe, 
0xa6, 0x5a, 0x20, 0x3e, 0xf2, 0x4e, 0x97, 0xbe, 0x04, 0x4a, 0xcc, 0xbd, 
0x86, 0x4e, 0x76, 0xbe, 0xa8, 0x6a, 0x16, 0xbd, 0x1e, 0x8b, 0x08, 0xbe, 
0x18, 0xc5, 0xd1, 0xbd, 0x4e, 0xe0, 0xa7, 0xbe, 0x3b, 0x76, 0x89, 0x3e, 
0xa3, 0x51, 0x93, 0x3e, 0x40, 0x98, 0xc5, 0x3b, 0x97, 0x0e, 0x5a, 0xbe, 
0xc6, 0x59, 0xa3, 0xbe, 0xfb, 0x6c, 0x98, 0xbe, 0x95, 0x0d, 0x99, 0x3e, 
0x58, 0xaf, 0x0f, 0xbd, 0x18, 0x3e, 0x00, 0xbd, 0xe0, 0x4a, 0x29, 0xbc, 
0x5c, 0x5f, 0xc1, 0x3d, 0xd0, 0x54, 0xf0, 0xbc, 0x43, 0x9c, 0x7e, 0xbe, 
0x36, 0x41, 0x9d, 0xbe, 0x98, 0x8f, 0xa3, 0x3d, 0x14, 0xe4, 0x82, 0xbe, 
0xb6, 0x8b, 0xac, 0xbe, 0x16, 0x0b, 0x1e, 0x3e, 0x0b, 0x07, 0x90, 0xbe, 
0x2a, 0x11, 0x1e, 0x3e, 0x84, 0xad, 0xb6, 0xbd, 0x27, 0x29, 0x85, 0x3e, 
0x12, 0x05, 0x11, 0xbe, 0xf8, 0x1c, 0x63, 0xbd, 0x30, 0xcc, 0x17, 0x3d, 
0x03, 0xd6, 0x95, 0xbe, 0x8c, 0x86, 0x97, 0xbd, 0xbd, 0xe8, 0x8f, 0x3e, 
0xed, 0x09, 0xb2, 0x3e, 0xa0, 0x7f, 0xdc, 0x3d, 0xc5, 0x33, 0x9e, 0x3e, 
0x60, 0xdb, 0xa9, 0xbc, 0xbe, 0xfc, 0x3e, 0xbe, 0xef, 0xbe, 0x3f, 0xbe, 
0x97, 0xec, 0x3a, 0xbe, 0x65, 0xc6, 0x9a, 0x3e, 0x7e, 0x83, 0x71, 0xbe, 
0xc6, 0x56, 0x94, 0xbe, 0x4a, 0xba, 0x69, 0x3e, 0x00, 0xc3, 0x7a, 0xbe, 
0x84, 0xaf, 0x20, 0xbe, 0xf0, 0x56, 0x84, 0xbd, 0x74, 0x6c, 0x89, 0xbe, 
0x30, 0x9d, 0x87, 0xbe, 0x2a, 0xd1, 0x71, 0x3e, 0xc6, 0x9c, 0x43, 0x3e, 
0x4a, 0xfe, 0x5d, 0x3e, 0xfc, 0x7e, 0x99, 0xbd, 0xae, 0xf5, 0x1c, 0x3e, 
0x3a, 0x36, 0x5b, 0xbe, 0x79, 0x8a, 0xa2, 0x3e, 0x10, 0x5a, 0xc7, 0xbd, 
0x80, 0x6b, 0x96, 0xbe, 0xfb, 0x3d, 0x80, 0x3e, 0x40, 0x44, 0xe8, 0x3d, 
0xdc, 0x6c, 0x81, 0xbe, 0x69, 0xc0, 0x09, 0xbe, 0x00, 0x50, 0x07, 0xb9, 
0xfc, 0xea, 0xf2, 0x3d, 0x82, 0x1d, 0x3c, 0xbe, 0xcf, 0x48, 0x90, 0x3e, 
0x5d, 0xe0, 0x97, 0x3e, 0x48, 0x04, 0xbf, 0xbd, 0x9a, 0x5a, 0x34, 0xbe, 
0x35, 0x32, 0xa1, 0x3e, 0xf0, 0x89, 0x0c, 0xbd, 0xd0, 0x2e, 0x7d, 0xbd, 
0x2b, 0x10, 0x8a, 0xbe, 0x3b, 0x0d, 0x82, 0x3e, 0x1d, 0x90, 0x87, 0x3e, 
0xde, 0xe9, 0x3f, 0xbe, 0x98, 0x9a, 0x8b, 0xbd, 0x66, 0x74, 0xe9, 0xbd, 
0xa8, 0xd5, 0x9c, 0x3d, 0x73, 0x72, 0x96, 0xbe, 0x3c, 0xa1, 0xfd, 0x3d, 
0x00, 0x12, 0xe2, 0x3d, 0xa5, 0xd5, 0x8d, 0x3e, 0x1b, 0xc1, 0x46, 0xbe, 
0x17, 0x10, 0x9f, 0xbe, 0x40, 0xe1, 0x7a, 0xbe, 0xda, 0x9b, 0x56, 0x3e, 
0xa0, 0xbd, 0x24, 0x3d, 0xb0, 0x4c, 0xda, 0x3d, 0x20, 0xd9, 0x93, 0xbe, 
0xd0, 0x16, 0x80, 0x3c, 0xb4, 0xff, 0x21, 0xbe, 0x10, 0xf7, 0xa5, 0xbe, 
0x1e, 0xc7, 0x17, 0x3e, 0x94, 0xce, 0x2e, 0xbe, 0xb5, 0x16, 0x99, 0x3e, 
0x91, 0x7a, 0xaa, 0x3e, 0x9f, 0x12, 0x19, 0xbe, 0x10, 0xbc, 0xf5, 0x3d, 
0xd0, 0xff, 0xa9, 0xbd, 0x08, 0xf0, 0xcb, 0xbd, 0x25, 0xe9, 0xaa, 0x3e, 
0x0a, 0x1b, 0x8c, 0xbe, 0x3b, 0xd9, 0x58, 0xbe, 0xe6, 0x0b, 0x93, 0xbe, 
0xdb, 0xd5, 0x96, 0x3e, 0x32, 0x1b, 0x55, 0x3e, 0xaa, 0xe0, 0x29, 0x3e, 
0xc0, 0xc1, 0xcc, 0xbb, 0x14, 0x0d, 0xec, 0x3d, 0xf2, 0x1f, 0x58, 0x3e, 
0x2c, 0x93, 0x1f, 0xbe, 0x01, 0x3d, 0x21, 0xbe, 0x34, 0x33, 0xf3, 0xbd, 
0xe2, 0x85, 0x6b, 0x3e, 0x70, 0x90, 0x82, 0xbc, 0xa6, 0xc0, 0x8e, 0xbe, 
0x07, 0x99, 0x1f, 0xbe, 0xe7, 0x73, 0x3d, 0xbe, 0x2f, 0xf1, 0x10, 0xbe, 
0x06, 0x41, 0x59, 0x3e, 0x73, 0x0f, 0xae, 0x3e, 0x00, 0xe0, 0x0e, 0x38, 
0x62, 0x4f, 0x87, 0xbe, 0xc8, 0xcf, 0xfb, 0x3d, 0x87, 0xff, 0x96, 0xbe, 
0xe0, 0xb1, 0x73, 0x3c, 0x3f, 0xcc, 0xa6, 0xbe, 0x28, 0x16, 0x0c, 0x3d, 
0xf0, 0x01, 0x11, 0x3e, 0xe1, 0xd6, 0x9d, 0x3e, 0x4f, 0xb6, 0xa7, 0x3e, 
0x51, 0xa2, 0x86, 0xbe, 0xb7, 0x02, 0x9c, 0xbe, 0x62, 0x07, 0x7b, 0x3e, 
0x98, 0x46, 0x47, 0xbe, 0x21, 0xe9, 0x88, 0xbe, 0xd7, 0x14, 0xa2, 0x3e, 
0x80, 0x4d, 0xa2, 0x3b, 0xa0, 0xde, 0x78, 0xbc, 0xe9, 0xec, 0x44, 0xbe, 
0x20, 0xee, 0xa1, 0xbc, 0xb6, 0x5b, 0xaf, 0xbe, 0xc8, 0x8a, 0xbe, 0x3d, 
0x76, 0xfe, 0xa2, 0xbe, 0x90, 0xa9, 0xda, 0xbc, 0x64, 0xce, 0x96, 0x3d, 
0x50, 0x11, 0x9b, 0xbc, 0x52, 0x06, 0x66, 0x3e, 0x4c, 0x5f, 0x7e, 0xbe, 
0xd8, 0xc5, 0x9c, 0xbe, 0x37, 0x10, 0x75, 0xbe, 0x11, 0x32, 0x10, 0xbe, 
0xef, 0x9b, 0x75, 0xbe, 0xd0, 0x84, 0xe7, 0x3c, 0xc8, 0x68, 0x85, 0xbe, 
0x95, 0x7b, 0x9d, 0xbe, 0x99, 0xf4, 0xa3, 0x3e, 0x4d, 0xb7, 0x77, 0xbe, 
0x46, 0x18, 0x59, 0xbe, 0x78, 0x79, 0xa9, 0x3d, 0xd0, 0x8f, 0x89, 0x3d, 
0x00, 0x10, 0xe8, 0xb9, 0x00, 0xd0, 0x4d, 0xba, 0x40, 0x3a, 0xac, 0x3c, 
0xa7, 0xc0, 0x9c, 0x3e, 0xdc, 0x0a, 0xde, 0x3d, 0xf5, 0xcf, 0x97, 0xbe, 
0x38, 0xe5, 0xa7, 0xbd, 0xa8, 0xdd, 0xf5, 0x3d, 0xa4, 0x49, 0xc3, 0xbd, 
0xb9, 0x37, 0x21, 0xbe, 0x20, 0x72, 0x2e, 0xbd, 0x5c, 0xf5, 0x99, 0xbe, 
0xd4, 0x3a, 0x77, 0xbe, 0x50, 0xa9, 0x8e, 0x3d, 0xda, 0x7b, 0xf0, 0xbd, 
0xb8, 0x61, 0x1c, 0xbd, 0x76, 0xe1, 0x59, 0x3e, 0x23, 0x92, 0xab, 0x3e, 
0x49, 0xe9, 0x9f, 0xbe, 0x08, 0xf7, 0x09, 0xbe, 0xef, 0xb9, 0x6e, 0xbe, 
0x72, 0x72, 0x35, 0x3e, 0xa8, 0xbd, 0x30, 0x3d, 0xf7, 0xa8, 0xb1, 0x3e, 
0xd0, 0x33, 0xf2, 0x3d, 0x52, 0x57, 0x84, 0xbe, 0xb8, 0xf7, 0x36, 0x3d, 
0x7b, 0x06, 0x51, 0xbe, 0xf2, 0x9e, 0x4e, 0x3e, 0xfa, 0xb1, 0x51, 0x3e, 
0x4a, 0xfa, 0xff, 0xff, 0x04, 0x00, 0x00, 0x00, 0x60, 0x00, 0x00, 0x00, 
0x9d, 0x54, 0x08, 0x3f, 0xc3, 0x00, 0x2d, 0x3f, 0x6a, 0x55, 0xf8, 0x3e, 
0x08, 0x40, 0xe5, 0xbe, 0x7b, 0x82, 0x2f, 0x3f, 0xf4, 0x04, 0x28, 0x3e, 
0xee, 0x68, 0xb1, 0x3e, 0xb1, 0x23, 0x13, 0xbf, 0xa1, 0x9f, 0x10, 0x3f, 
0x58, 0x41, 0xd3, 0x3d, 0x30, 0x6a, 0x6f, 0x3e, 0x58, 0xa6, 0x59, 0xbe, 
0xb0, 0x3e, 0x32, 0x3e, 0xf0, 0xa3, 0x08, 0xbe, 0xbe, 0x02, 0xcd, 0x3e, 
0x61, 0xfd, 0x14, 0xbf, 0xb2, 0x17, 0xd0, 0x3e, 0x51, 0x7e, 0x0a, 0x3f, 
0x4b, 0xeb, 0xc7, 0xbe, 0x71, 0x83, 0x0d, 0xbf, 0x24, 0xef, 0x5a, 0xbe, 
0xcb, 0x56, 0x26, 0xbf, 0xdb, 0xea, 0x10, 0x3f, 0x00, 0x14, 0xa0, 0xba, 
0xf4, 0xe2, 0xff, 0xff, 0xf8, 0xe2, 0xff, 0xff, 0x0f, 0x00, 0x00, 0x00, 
0x4d, 0x4c, 0x49, 0x52, 0x20, 0x43, 0x6f, 0x6e, 0x76, 0x65, 0x72, 0x74, 
0x65, 0x64, 0x2e, 0x00, 0x01, 0x00, 0x00, 0x00, 0x14, 0x00, 0x00, 0x00, 
0x00, 0x00, 0x0e, 0x00, 0x18, 0x00, 0x14, 0x00, 0x10, 0x00, 0x0c, 0x00, 
0x08, 0x00, 0x04, 0x00, 0x0e, 0x00, 0x00, 0x00, 0x14, 0x00, 0x00, 0x00, 
0x1c, 0x00, 0x00, 0x00, 0xd0, 0x06, 0x00, 0x00, 0xd4, 0x06, 0x00, 0x00, 
0xd8, 0x06, 0x00, 0x00, 0x04, 0x00, 0x00, 0x00, 0x6d, 0x61, 0x69, 0x6e, 
0x00, 0x00, 0x00, 0x00, 0x23, 0x00, 0x00, 0x00, 0x90, 0x06, 0x00, 0x00, 
0x5c, 0x06, 0x00, 0x00, 0x34, 0x06, 0x00, 0x00, 0x0c, 0x06, 0x00, 0x00, 
0xe4, 0x05, 0x00, 0x00, 0xac, 0x05, 0x00, 0x00, 0x64, 0x05, 0x00, 0x00, 
0x30, 0x05, 0x00, 0x00, 0xfc, 0x04, 0x00, 0x00, 0xb0, 0x04, 0x00, 0x00, 
0x8c, 0x04, 0x00, 0x00, 0x5c, 0x04, 0x00, 0x00, 0x28, 0x04, 0x00, 0x00, 
0x04, 0x04, 0x00, 0x00, 0xe0, 0x03, 0x00, 0x00, 0xac, 0x03, 0x00, 0x00, 
0x78, 0x03, 0x00, 0x00, 0x54, 0x03, 0x00, 0x00, 0x20, 0x03, 0x00, 0x00, 
0xe8, 0x02, 0x00, 0x00, 0xb0, 0x02, 0x00, 0x00, 0x7c, 0x02, 0x00, 0x00, 
0x48, 0x02, 0x00, 0x00, 0x04, 0x02, 0x00, 0x00, 0xe0, 0x01, 0x00, 0x00, 
0xbc, 0x01, 0x00, 0x00, 0x88, 0x01, 0x00, 0x00, 0x64, 0x01, 0x00, 0x00, 
0x40, 0x01, 0x00, 0x00, 0x0c, 0x01, 0x00, 0x00, 0xd8, 0x00, 0x00, 0x00, 
0xb4, 0x00, 0x00, 0x00, 0x80, 0x00, 0x00, 0x00, 0x48, 0x00, 0x00, 0x00, 
0x04, 0x00, 0x00, 0x00, 0xda, 0xfa, 0xff, 0xff, 0x14, 0x00, 0x00, 0x00, 
0x00, 0x00, 0x00, 0x0a, 0x14, 0x00, 0x00, 0x00, 0x18, 0x00, 0x00, 0x00, 
0x07, 0x00, 0x00, 0x00, 0xb6, 0xfb, 0xff, 0xff, 0xff, 0xff, 0xff, 0xff, 
0x01, 0x00, 0x00, 0x00, 0x38, 0x00, 0x00, 0x00, 0x05, 0x00, 0x00, 0x00, 
0x37, 0x00, 0x00, 0x00, 0x25, 0x00, 0x00, 0x00, 0x36, 0x00, 0x00, 0x00, 
0x23, 0x00, 0x00, 0x00, 0x34, 0x00, 0x00, 0x00, 0x1a, 0xfb, 0xff, 0xff, 
0x14, 0x00, 0x00, 0x00, 0x00, 0x00, 0x00, 0x08, 0x10, 0x00, 0x00, 0x00, 
0x14, 0x00, 0x00, 0x00, 0x01, 0x00, 0x00, 0x00, 0x34, 0xe4, 0xff, 0xff, 
0x01, 0x00, 0x00, 0x00, 0x37, 0x00, 0x00, 0x00, 0x03, 0x00, 0x00, 0x00, 
0x36, 0x00, 0x00, 0x00, 0x01, 0x00, 0x00, 0x00, 0xff, 0xff, 0xff, 0xff, 
0x4e, 0xfb, 0xff, 0xff, 0x14, 0x00, 0x00, 0x00, 0x00, 0x00, 0x00, 0x15, 
0x10, 0x00, 0x00, 0x00, 0x14, 0x00, 0x00, 0x00, 0x05, 0x00, 0x00, 0x00, 
0x68, 0xe4, 0xff, 0xff, 0x01, 0x00, 0x00, 0x00, 0x36, 0x00, 0x00, 0x00, 
0x02, 0x00, 0x00, 0x00, 0x31, 0x00, 0x00, 0x00, 0x35, 0x00, 0x00, 0x00, 
0x86, 0xfc, 0xff, 0xff, 0x0c, 0x00, 0x00, 0x00, 0x10, 0x00, 0x00, 0x00, 
0x06, 0x00, 0x00, 0x00, 0x01, 0x00, 0x00, 0x00, 0x35, 0x00, 0x00, 0x00, 
0x01, 0x00, 0x00, 0x00, 0x34, 0x00, 0x00, 0x00, 0x9e, 0xfb, 0xff, 0xff, 
0x14, 0x00, 0x00, 0x00, 0x00, 0x00, 0x00, 0x0b, 0x10, 0x00, 0x00, 0x00, 
0x14, 0x00, 0x00, 0x00, 0x02, 0x00, 0x00, 0x00, 0xb8, 0xe4, 0xff, 0xff, 
0x01, 0x00, 0x00, 0x00, 0x34, 0x00, 0x00, 0x00, 0x02, 0x00, 0x00, 0x00, 
0x30, 0x00, 0x00, 0x00, 0x33, 0x00, 0x00, 0x00, 0xce, 0xfb, 0xff, 0xff, 
0x14, 0x00, 0x00, 0x00, 0x00, 0x00, 0x00, 0x15, 0x10, 0x00, 0x00, 0x00, 
0x14, 0x00, 0x00, 0x00, 0x05, 0x00, 0x00, 0x00, 0xe8, 0xe4, 0xff, 0xff, 
0x01, 0x00, 0x00, 0x00, 0x33, 0x00, 0x00, 0x00, 0x02, 0x00, 0x00, 0x00, 
0x2e, 0x00, 0x00, 0x00, 0x32, 0x00, 0x00, 0x00, 0x06, 0xfd, 0xff, 0xff, 
0x0c, 0x00, 0x00, 0x00, 0x10, 0x00, 0x00, 0x00, 0x06, 0x00, 0x00, 0x00, 
0x01, 0x00, 0x00, 0x00, 0x32, 0x00, 0x00, 0x00, 0x01, 0x00, 0x00, 0x00, 
0x2c, 0x00, 0x00, 0x00, 0x26, 0xfd, 0xff, 0xff, 0x0c, 0x00, 0x00, 0x00, 
0x10, 0x00, 0x00, 0x00, 0x04, 0x00, 0x00, 0x00, 0x01, 0x00, 0x00, 0x00, 
0x31, 0x00, 0x00, 0x00, 0x01, 0x00, 0x00, 0x00, 0x2d, 0x00, 0x00, 0x00, 
0x3e, 0xfc, 0xff, 0xff, 0x14, 0x00, 0x00, 0x00, 0x00, 0x00, 0x00, 0x15, 
0x10, 0x00, 0x00, 0x00, 0x14, 0x00, 0x00, 0x00, 0x05, 0x00, 0x00, 0x00, 
0x58, 0xe5, 0xff, 0xff, 0x01, 0x00, 0x00, 0x00, 0x30, 0x00, 0x00, 0x00, 
0x02, 0x00, 0x00, 0x00, 0x2f, 0x00, 0x00, 0x00, 0x11, 0x00, 0x00, 0x00, 
0x76, 0xfd, 0xff, 0xff, 0x0c, 0x00, 0x00, 0x00, 0x10, 0x00, 0x00, 0x00, 
0x04, 0x00, 0x00, 0x00, 0x01, 0x00, 0x00, 0x00, 0x2f, 0x00, 0x00, 0x00, 
0x01, 0x00, 0x00, 0x00, 0x2b, 0x00, 0x00, 0x00, 0x96, 0xfd, 0xff, 0xff, 
0x0c, 0x00, 0x00, 0x00, 0x10, 0x00, 0x00, 0x00, 0x04, 0x00, 0x00, 0x00, 
0x01, 0x00, 0x00, 0x00, 0x2e, 0x00, 0x00, 0x00, 0x01, 0x00, 0x00, 0x00, 
0x2a, 0x00, 0x00, 0x00, 0xae, 0xfc, 0xff, 0xff, 0x14, 0x00, 0x00, 0x00, 
0x00, 0x00, 0x00, 0x23, 0x14, 0x00, 0x00, 0x00, 0x24, 0x00, 0x00, 0x00, 
0x03, 0x00, 0x00, 0x00, 0x8a, 0xfd, 0xff, 0xff, 0x04, 0x00, 0x00, 0x00, 
0x04, 0x00, 0x00, 0x00, 0x2a, 0x00, 0x00, 0x00, 0x2b, 0x00, 0x00, 0x00, 
0x2c, 0x00, 0x00, 0x00, 0x2d, 0x00, 0x00, 0x00, 0x02, 0x00, 0x00, 0x00, 
0x08, 0x00, 0x00, 0x00, 0x29, 0x00, 0x00, 0x00, 0xee, 0xfc, 0xff, 0xff, 
0x14, 0x00, 0x00, 0x00, 0x00, 0x00, 0x00, 0x0b, 0x10, 0x00, 0x00, 0x00, 
0x14, 0x00, 0x00, 0x00, 0x02, 0x00, 0x00, 0x00, 0x08, 0xe6, 0xff, 0xff, 
0x01, 0x00, 0x00, 0x00, 0x29, 0x00, 0x00, 0x00, 0x02, 0x00, 0x00, 0x00, 
0x28, 0x00, 0x00, 0x00, 0x06, 0x00, 0x00, 0x00, 0x1e, 0xfd, 0xff, 0xff, 
0x14, 0x00, 0x00, 0x00, 0x00, 0x00, 0x00, 0x0b, 0x10, 0x00, 0x00, 0x00, 
0x14, 0x00, 0x00, 0x00, 0x02, 0x00, 0x00, 0x00, 0x38, 0xe6, 0xff, 0xff, 
0x01, 0x00, 0x00, 0x00, 0x28, 0x00, 0x00, 0x00, 0x02, 0x00, 0x00, 0x00, 
0x27, 0x00, 0x00, 0x00, 0x26, 0x00, 0x00, 0x00, 0x4e, 0xfd, 0xff, 0xff, 
0x14, 0x00, 0x00, 0x00, 0x00, 0x00, 0x00, 0x08, 0x10, 0x00, 0x00, 0x00, 
0x14, 0x00, 0x00, 0x00, 0x01, 0x00, 0x00, 0x00, 0x68, 0xe6, 0xff, 0xff, 
0x01, 0x00, 0x00, 0x00, 0x27, 0x00, 0x00, 0x00, 0x03, 0x00, 0x00, 0x00, 
0x25, 0x00, 0x00, 0x00, 0x02, 0x00, 0x00, 0x00, 0xff, 0xff, 0xff, 0xff, 
0x82, 0xfd, 0xff, 0xff, 0x14, 0x00, 0x00, 0x00, 0x00, 0x00, 0x00, 0x08, 
0x10, 0x00, 0x00, 0x00, 0x14, 0x00, 0x00, 0x00, 0x01, 0x00, 0x00, 0x00, 
0x9c, 0xe6, 0xff, 0xff, 0x01, 0x00, 0x00, 0x00, 0x26, 0x00, 0x00, 0x00, 
0x03, 0x00, 0x00, 0x00, 0x13, 0x00, 0x00, 0x00, 0x03, 0x00, 0x00, 0x00, 
0xff, 0xff, 0xff, 0xff, 0xb6, 0xfd, 0xff, 0xff, 0x14, 0x00, 0x00, 0x00, 
0x00, 0x00, 0x00, 0x15, 0x10, 0x00, 0x00, 0x00, 0x14, 0x00, 0x00, 0x00, 
0x05, 0x00, 0x00, 0x00, 0xd0, 0xe6, 0xff, 0xff, 0x01, 0x00, 0x00, 0x00, 
0x25, 0x00, 0x00, 0x00, 0x02, 0x00, 0x00, 0x00, 0x20, 0x00, 0x00, 0x00, 
0x24, 0x00, 0x00, 0x00, 0xee, 0xfe, 0xff, 0xff, 0x0c, 0x00, 0x00, 0x00, 
0x10, 0x00, 0x00, 0x00, 0x06, 0x00, 0x00, 0x00, 0x01, 0x00, 0x00, 0x00, 
0x24, 0x00, 0x00, 0x00, 0x01, 0x00, 0x00, 0x00, 0x23, 0x00, 0x00, 0x00, 
0x06, 0xfe, 0xff, 0xff, 0x14, 0x00, 0x00, 0x00, 0x00, 0x00, 0x00, 0x0b, 
0x10, 0x00, 0x00, 0x00, 0x14, 0x00, 0x00, 0x00, 0x02, 0x00, 0x00, 0x00, 
0x20, 0xe7, 0xff, 0xff, 0x01, 0x00, 0x00, 0x00, 0x23, 0x00, 0x00, 0x00, 
0x02, 0x00, 0x00, 0x00, 0x1f, 0x00, 0x00, 0x00, 0x22, 0x00, 0x00, 0x00, 
0x36, 0xfe, 0xff, 0xff, 0x14, 0x00, 0x00, 0x00, 0x00, 0x00, 0x00, 0x15, 
0x10, 0x00, 0x00, 0x00, 0x14, 0x00, 0x00, 0x00, 0x05, 0x00, 0x00, 0x00, 
0x50, 0xe7, 0xff, 0xff, 0x01, 0x00, 0x00, 0x00, 0x22, 0x00, 0x00, 0x00, 
0x02, 0x00, 0x00, 0x00, 0x1d, 0x00, 0x00, 0x00, 0x21, 0x00, 0x00, 0x00, 
0x6e, 0xff, 0xff, 0xff, 0x0c, 0x00, 0x00, 0x00, 0x10, 0x00, 0x00, 0x00, 
0x06, 0x00, 0x00, 0x00, 0x01, 0x00, 0x00, 0x00, 0x21, 0x00, 0x00, 0x00, 
0x01, 0x00, 0x00, 0x00, 0x1b, 0x00, 0x00, 0x00, 0x8e, 0xff, 0xff, 0xff, 
0x0c, 0x00, 0x00, 0x00, 0x10, 0x00, 0x00, 0x00, 0x04, 0x00, 0x00, 0x00, 
0x01, 0x00, 0x00, 0x00, 0x20, 0x00, 0x00, 0x00, 0x01, 0x00, 0x00, 0x00, 
0x1c, 0x00, 0x00, 0x00, 0xa6, 0xfe, 0xff, 0xff, 0x14, 0x00, 0x00, 0x00, 
0x00, 0x00, 0x00, 0x15, 0x10, 0x00, 0x00, 0x00, 0x14, 0x00, 0x00, 0x00, 
0x05, 0x00, 0x00, 0x00, 0xc0, 0xe7, 0xff, 0xff, 0x01, 0x00, 0x00, 0x00, 
0x1f, 0x00, 0x00, 0x00, 0x02, 0x00, 0x00, 0x00, 0x1e, 0x00, 0x00, 0x00, 
0x10, 0x00, 0x00, 0x00, 0xde, 0xff, 0xff, 0xff, 0x0c, 0x00, 0x00, 0x00, 
0x10, 0x00, 0x00, 0x00, 0x04, 0x00, 0x00, 0x00, 0x01, 0x00, 0x00, 0x00, 
0x1e, 0x00, 0x00, 0x00, 0x01, 0x00, 0x00, 0x00, 0x1a, 0x00, 0x00, 0x00, 
0x00, 0x00, 0x0a, 0x00, 0x10, 0x00, 0x0c, 0x00, 0x08, 0x00, 0x04, 0x00, 
0x0a, 0x00, 0x00, 0x00, 0x0c, 0x00, 0x00, 0x00, 0x10, 0x00, 0x00, 0x00, 
0x04, 0x00, 0x00, 0x00, 0x01, 0x00, 0x00, 0x00, 0x1d, 0x00, 0x00, 0x00, 
0x01, 0x00, 0x00, 0x00, 0x19, 0x00, 0x00, 0x00, 0x22, 0xff, 0xff, 0xff, 
0x1c, 0x00, 0x00, 0x00, 0x00, 0x00, 0x00, 0x23, 0x1c, 0x00, 0x00, 0x00, 
0x2c, 0x00, 0x00, 0x00, 0x03, 0x00, 0x00, 0x00, 0x00, 0x00, 0x06, 0x00, 
0x08, 0x00, 0x04, 0x00, 0x06, 0x00, 0x00, 0x00, 0x04, 0x00, 0x00, 0x00, 
0x04, 0x00, 0x00, 0x00, 0x19, 0x00, 0x00, 0x00, 0x1a, 0x00, 0x00, 0x00, 
0x1b, 0x00, 0x00, 0x00, 0x1c, 0x00, 0x00, 0x00, 0x02, 0x00, 0x00, 0x00, 
0x08, 0x00, 0x00, 0x00, 0x18, 0x00, 0x00, 0x00, 0x6a, 0xff, 0xff, 0xff, 
0x14, 0x00, 0x00, 0x00, 0x00, 0x00, 0x00, 0x0b, 0x10, 0x00, 0x00, 0x00, 
0x14, 0x00, 0x00, 0x00, 0x02, 0x00, 0x00, 0x00, 0x84, 0xe8, 0xff, 0xff, 
0x01, 0x00, 0x00, 0x00, 0x18, 0x00, 0x00, 0x00, 0x02, 0x00, 0x00, 0x00, 
0x17, 0x00, 0x00, 0x00, 0x07, 0x00, 0x00, 0x00, 0x9a, 0xff, 0xff, 0xff, 
0x14, 0x00, 0x00, 0x00, 0x00, 0x00, 0x00, 0x0b, 0x10, 0x00, 0x00, 0x00, 
0x14, 0x00, 0x00, 0x00, 0x02, 0x00, 0x00, 0x00, 0xb4, 0xe8, 0xff, 0xff, 
0x01, 0x00, 0x00, 0x00, 0x17, 0x00, 0x00, 0x00, 0x02, 0x00, 0x00, 0x00, 
0x16, 0x00, 0x00, 0x00, 0x15, 0x00, 0x00, 0x00, 0xca, 0xff, 0xff, 0xff, 
0x14, 0x00, 0x00, 0x00, 0x00, 0x00, 0x00, 0x08, 0x10, 0x00, 0x00, 0x00, 
0x14, 0x00, 0x00, 0x00, 0x01, 0x00, 0x00, 0x00, 0xe4, 0xe8, 0xff, 0xff, 
0x01, 0x00, 0x00, 0x00, 0x16, 0x00, 0x00, 0x00, 0x03, 0x00, 0x00, 0x00, 
0x14, 0x00, 0x00, 0x00, 0x04, 0x00, 0x00, 0x00, 0xff, 0xff, 0xff, 0xff, 
0x00, 0x00, 0x0e, 0x00, 0x18, 0x00, 0x14, 0x00, 0x10, 0x00, 0x0c, 0x00, 
0x0b, 0x00, 0x04, 0x00, 0x0e, 0x00, 0x00, 0x00, 0x14, 0x00, 0x00, 0x00, 
0x00, 0x00, 0x00, 0x08, 0x10, 0x00, 0x00, 0x00, 0x14, 0x00, 0x00, 0x00, 
0x01, 0x00, 0x00, 0x00, 0x28, 0xe9, 0xff, 0xff, 0x01, 0x00, 0x00, 0x00, 
0x15, 0x00, 0x00, 0x00, 0x03, 0x00, 0x00, 0x00, 0x12, 0x00, 0x00, 0x00, 
0x05, 0x00, 0x00, 0x00, 0xff, 0xff, 0xff, 0xff, 0x6e, 0xff, 0xff, 0xff, 
0x08, 0x00, 0x00, 0x00, 0x0c, 0x00, 0x00, 0x00, 0x01, 0x00, 0x00, 0x00, 
0x14, 0x00, 0x00, 0x00, 0x03, 0x00, 0x00, 0x00, 0x00, 0x00, 0x00, 0x00, 
0x0e, 0x00, 0x00, 0x00, 0x0f, 0x00, 0x00, 0x00, 0x92, 0xff, 0xff, 0xff, 
0x08, 0x00, 0x00, 0x00, 0x0c, 0x00, 0x00, 0x00, 0x01, 0x00, 0x00, 0x00, 
0x13, 0x00, 0x00, 0x00, 0x03, 0x00, 0x00, 0x00, 0x00, 0x00, 0x00, 0x00, 
0x09, 0x00, 0x00, 0x00, 0x0c, 0x00, 0x00, 0x00, 0xb6, 0xff, 0xff, 0xff, 
0x08, 0x00, 0x00, 0x00, 0x0c, 0x00, 0x00, 0x00, 0x01, 0x00, 0x00, 0x00, 
0x12, 0x00, 0x00, 0x00, 0x03, 0x00, 0x00, 0x00, 0x00, 0x00, 0x00, 0x00, 
0x0d, 0x00, 0x00, 0x00, 0x0a, 0x00, 0x00, 0x00, 0xda, 0xff, 0xff, 0xff, 
0x08, 0x00, 0x00, 0x00, 0x0c, 0x00, 0x00, 0x00, 0x01, 0x00, 0x00, 0x00, 
0x11, 0x00, 0x00, 0x00, 0x03, 0x00, 0x00, 0x00, 0x00, 0x00, 0x00, 0x00, 
0x0b, 0x00, 0x00, 0x00, 0x0c, 0x00, 0x00, 0x00, 0x00, 0x00, 0x0a, 0x00, 
0x0c, 0x00, 0x00, 0x00, 0x08, 0x00, 0x04, 0x00, 0x0a, 0x00, 0x00, 0x00, 
0x08, 0x00, 0x00, 0x00, 0x0c, 0x00, 0x00, 0x00, 0x01, 0x00, 0x00, 0x00, 
0x10, 0x00, 0x00, 0x00, 0x03, 0x00, 0x00, 0x00, 0x00, 0x00, 0x00, 0x00, 
0x09, 0x00, 0x00, 0x00, 0x0a, 0x00, 0x00, 0x00, 0x01, 0x00, 0x00, 0x00, 
0x38, 0x00, 0x00, 0x00, 0x01, 0x00, 0x00, 0x00, 0x00, 0x00, 0x00, 0x00, 
0x39, 0x00, 0x00, 0x00, 0x28, 0x15, 0x00, 0x00, 0xd0, 0x14, 0x00, 0x00, 
0x78, 0x14, 0x00, 0x00, 0x38, 0x14, 0x00, 0x00, 0xf8, 0x13, 0x00, 0x00, 
0xb8, 0x13, 0x00, 0x00, 0x7c, 0x13, 0x00, 0x00, 0x40, 0x13, 0x00, 0x00, 
0x04, 0x13, 0x00, 0x00, 0xac, 0x12, 0x00, 0x00, 0x6c, 0x12, 0x00, 0x00, 
0x0c, 0x12, 0x00, 0x00, 0xc8, 0x11, 0x00, 0x00, 0x68, 0x11, 0x00, 0x00, 
0x0c, 0x11, 0x00, 0x00, 0xb0, 0x10, 0x00, 0x00, 0x48, 0x10, 0x00, 0x00, 
0xe0, 0x0f, 0x00, 0x00, 0x74, 0x0f, 0x00, 0x00, 0x08, 0x0f, 0x00, 0x00, 
0xa0, 0x0e, 0x00, 0x00, 0x34, 0x0e, 0x00, 0x00, 0xcc, 0x0d, 0x00, 0x00, 
0x68, 0x0d, 0x00, 0x00, 0x00, 0x0d, 0x00, 0x00, 0x98, 0x0c, 0x00, 0x00, 
0x30, 0x0c, 0x00, 0x00, 0xc8, 0x0b, 0x00, 0x00, 0x60, 0x0b, 0x00, 0x00, 
0xf8, 0x0a, 0x00, 0x00, 0x8c, 0x0a, 0x00, 0x00, 0x28, 0x0a, 0x00, 0x00, 
0xbc, 0x09, 0x00, 0x00, 0x54, 0x09, 0x00, 0x00, 0xec, 0x08, 0x00, 0x00, 
0x84, 0x08, 0x00, 0x00, 0x1c, 0x08, 0x00, 0x00, 0xb4, 0x07, 0x00, 0x00, 
0x48, 0x07, 0x00, 0x00, 0xe0, 0x06, 0x00, 0x00, 0x7c, 0x06, 0x00, 0x00, 
0x14, 0x06, 0x00, 0x00, 0xac, 0x05, 0x00, 0x00, 0x44, 0x05, 0x00, 0x00, 
0xdc, 0x04, 0x00, 0x00, 0x74, 0x04, 0x00, 0x00, 0x0c, 0x04, 0x00, 0x00, 
0xa0, 0x03, 0x00, 0x00, 0x3c, 0x03, 0x00, 0x00, 0xd0, 0x02, 0x00, 0x00, 
0x68, 0x02, 0x00, 0x00, 0x00, 0x02, 0x00, 0x00, 0x98, 0x01, 0x00, 0x00, 
0x30, 0x01, 0x00, 0x00, 0xc8, 0x00, 0x00, 0x00, 0x60, 0x00, 0x00, 0x00, 
0x04, 0x00, 0x00, 0x00, 0xd2, 0xeb, 0xff, 0xff, 0x00, 0x00, 0x00, 0x01, 
0x14, 0x00, 0x00, 0x00, 0x1c, 0x00, 0x00, 0x00, 0x1c, 0x00, 0x00, 0x00, 
0x39, 0x00, 0x00, 0x00, 0x34, 0x00, 0x00, 0x00, 0x02, 0x00, 0x00, 0x00, 
0xff, 0xff, 0xff, 0xff, 0x33, 0x00, 0x00, 0x00, 0x24, 0xeb, 0xff, 0xff, 
0x1b, 0x00, 0x00, 0x00, 0x53, 0x74, 0x61, 0x74, 0x65, 0x66, 0x75, 0x6c, 
0x50, 0x61, 0x72, 0x74, 0x69, 0x74, 0x69, 0x6f, 0x6e, 0x65, 0x64, 0x43, 
0x61, 0x6c, 0x6c, 0x5f, 0x31, 0x3a, 0x30, 0x00, 0x02, 0x00, 0x00, 0x00, 
0x01, 0x00, 0x00, 0x00, 0x33, 0x00, 0x00, 0x00, 0x2a, 0xec, 0xff, 0xff, 
0x00, 0x00, 0x00, 0x01, 0x14, 0x00, 0x00, 0x00, 0x1c, 0x00, 0x00, 0x00, 
0x1c, 0x00, 0x00, 0x00, 0x38, 0x00, 0x00, 0x00, 0x40, 0x00, 0x00, 0x00, 
0x02, 0x00, 0x00, 0x00, 0xff, 0xff, 0xff, 0xff, 0x03, 0x00, 0x00, 0x00, 
0x7c, 0xeb, 0xff, 0xff, 0x27, 0x00, 0x00, 0x00, 0x53, 0x74, 0x65, 0x70, 
0x5f, 0x4c, 0x53, 0x54, 0x4d, 0x5f, 0x4d, 0x6f, 0x64, 0x65, 0x6c, 0x5f, 
0x31, 0x2f, 0x46, 0x69, 0x6e, 0x61, 0x6c, 0x5f, 0x4f, 0x75, 0x74, 0x70, 
0x75, 0x74, 0x5f, 0x31, 0x2f, 0x4d, 0x61, 0x74, 0x4d, 0x75, 0x6c, 0x00, 
0x02, 0x00, 0x00, 0x00, 0x01, 0x00, 0x00, 0x00, 0x03, 0x00, 0x00, 0x00, 
0x8e, 0xec, 0xff, 0xff, 0x00, 0x00, 0x00, 0x01, 0x14, 0x00, 0x00, 0x00, 
0x1c, 0x00, 0x00, 0x00, 0x1c, 0x00, 0x00, 0x00, 0x37, 0x00, 0x00, 0x00, 
0x40, 0x00, 0x00, 0x00, 0x02, 0x00, 0x00, 0x00, 0xff, 0xff, 0xff, 0xff, 
0x08, 0x00, 0x00, 0x00, 0xe0, 0xeb, 0xff, 0xff, 0x25, 0x00, 0x00, 0x00, 
0x53, 0x74, 0x65, 0x70, 0x5f, 0x4c, 0x53, 0x54, 0x4d, 0x5f, 0x4d, 0x6f, 
0x64, 0x65, 0x6c, 0x5f, 0x31, 0x2f, 0x4c, 0x53, 0x54, 0x4d, 0x5f, 0x43, 
0x65, 0x6c, 0x6c, 0x5f, 0x32, 0x5f, 0x31, 0x2f, 0x6d, 0x75, 0x6c, 0x5f, 
0x32, 0x00, 0x00, 0x00, 0x02, 0x00, 0x00, 0x00, 0x01, 0x00, 0x00, 0x00, 
0x08, 0x00, 0x00, 0x00, 0xf2, 0xec, 0xff, 0xff, 0x00, 0x00, 0x00, 0x01, 
0x14, 0x00, 0x00, 0x00, 0x1c, 0x00, 0x00, 0x00, 0x1c, 0x00, 0x00, 0x00, 
0x36, 0x00, 0x00, 0x00, 0x40, 0x00, 0x00, 0x00, 0x02, 0x00, 0x00, 0x00, 
0xff, 0xff, 0xff, 0xff, 0x08, 0x00, 0x00, 0x00, 0x44, 0xec, 0xff, 0xff, 
0x26, 0x00, 0x00, 0x00, 0x53, 0x74, 0x65, 0x70, 0x5f, 0x4c, 0x53, 0x54, 
0x4d, 0x5f, 0x4d, 0x6f, 0x64, 0x65, 0x6c, 0x5f, 0x31, 0x2f, 0x4c, 0x53, 
0x54, 0x4d, 0x5f, 0x43, 0x65, 0x6c, 0x6c, 0x5f, 0x32, 0x5f, 0x31, 0x2f, 
0x54, 0x61, 0x6e, 0x68, 0x5f, 0x31, 0x00, 0x00, 0x02, 0x00, 0x00, 0x00, 
0x01, 0x00, 0x00, 0x00, 0x08, 0x00, 0x00, 0x00, 0x56, 0xed, 0xff, 0xff, 
0x00, 0x00, 0x00, 0x01, 0x14, 0x00, 0x00, 0x00, 0x1c, 0x00, 0x00, 0x00, 
0x1c, 0x00, 0x00, 0x00, 0x35, 0x00, 0x00, 0x00, 0x40, 0x00, 0x00, 0x00, 
0x02, 0x00, 0x00, 0x00, 0xff, 0xff, 0xff, 0xff, 0x08, 0x00, 0x00, 0x00, 
0xa8, 0xec, 0xff, 0xff, 0x25, 0x00, 0x00, 0x00, 0x53, 0x74, 0x65, 0x70, 
0x5f, 0x4c, 0x53, 0x54, 0x4d, 0x5f, 0x4d, 0x6f, 0x64, 0x65, 0x6c, 0x5f, 
0x31, 0x2f, 0x4c, 0x53, 0x54, 0x4d, 0x5f, 0x43, 0x65, 0x6c, 0x6c, 0x5f, 
0x32, 0x5f, 0x31, 0x2f, 0x61, 0x64, 0x64, 0x5f, 0x32, 0x00, 0x00, 0x00, 
0x02, 0x00, 0x00, 0x00, 0x01, 0x00, 0x00, 0x00, 0x08, 0x00, 0x00, 0x00, 
0xba, 0xed, 0xff, 0xff, 0x00, 0x00, 0x00, 0x01, 0x14, 0x00, 0x00, 0x00, 
0x1c, 0x00, 0x00, 0x00, 0x1c, 0x00, 0x00, 0x00, 0x34, 0x00, 0x00, 0x00, 
0x40, 0x00, 0x00, 0x00, 0x02, 0x00, 0x00, 0x00, 0xff, 0xff, 0xff, 0xff, 
0x08, 0x00, 0x00, 0x00, 0x0c, 0xed, 0xff, 0xff, 0x25, 0x00, 0x00, 0x00, 
0x53, 0x74, 0x65, 0x70, 0x5f, 0x4c, 0x53, 0x54, 0x4d, 0x5f, 0x4d, 0x6f, 
0x64, 0x65, 0x6c, 0x5f, 0x31, 0x2f, 0x4c, 0x53, 0x54, 0x4d, 0x5f, 0x43, 
0x65, 0x6c, 0x6c, 0x5f, 0x32, 0x5f, 0x31, 0x2f, 0x6d, 0x75, 0x6c, 0x5f, 
0x31, 0x00, 0x00, 0x00, 0x02, 0x00, 0x00, 0x00, 0x01, 0x00, 0x00, 0x00, 
0x08, 0x00, 0x00, 0x00, 0x1e, 0xee, 0xff, 0xff, 0x00, 0x00, 0x00, 0x01, 
0x14, 0x00, 0x00, 0x00, 0x1c, 0x00, 0x00, 0x00, 0x1c, 0x00, 0x00, 0x00, 
0x33, 0x00, 0x00, 0x00, 0x40, 0x00, 0x00, 0x00, 0x02, 0x00, 0x00, 0x00, 
0xff, 0xff, 0xff, 0xff, 0x08, 0x00, 0x00, 0x00, 0x70, 0xed, 0xff, 0xff, 
0x24, 0x00, 0x00, 0x00, 0x53, 0x74, 0x65, 0x70, 0x5f, 0x4c, 0x53, 0x54, 
0x4d, 0x5f, 0x4d, 0x6f, 0x64, 0x65, 0x6c, 0x5f, 0x31, 0x2f, 0x4c, 0x53, 
0x54, 0x4d, 0x5f, 0x43, 0x65, 0x6c, 0x6c, 0x5f, 0x32, 0x5f, 0x31, 0x2f, 
0x54, 0x61, 0x6e, 0x68, 0x00, 0x00, 0x00, 0x00, 0x02, 0x00, 0x00, 0x00, 
0x01, 0x00, 0x00, 0x00, 0x08, 0x00, 0x00, 0x00, 0x82, 0xee, 0xff, 0xff, 
0x00, 0x00, 0x00, 0x01, 0x14, 0x00, 0x00, 0x00, 0x1c, 0x00, 0x00, 0x00, 
0x1c, 0x00, 0x00, 0x00, 0x32, 0x00, 0x00, 0x00, 0x44, 0x00, 0x00, 0x00, 
0x02, 0x00, 0x00, 0x00, 0xff, 0xff, 0xff, 0xff, 0x08, 0x00, 0x00, 0x00, 
0xd4, 0xed, 0xff, 0xff, 0x29, 0x00, 0x00, 0x00, 0x53, 0x74, 0x65, 0x70, 
0x5f, 0x4c, 0x53, 0x54, 0x4d, 0x5f, 0x4d, 0x6f, 0x64, 0x65, 0x6c, 0x5f, 
0x31, 0x2f, 0x4c, 0x53, 0x54, 0x4d, 0x5f, 0x43, 0x65, 0x6c, 0x6c, 0x5f, 
0x32, 0x5f, 0x31, 0x2f, 0x53, 0x69, 0x67, 0x6d, 0x6f, 0x69, 0x64, 0x5f, 
0x32, 0x00, 0x00, 0x00, 0x02, 0x00, 0x00, 0x00, 0x01, 0x00, 0x00, 0x00, 
0x08, 0x00, 0x00, 0x00, 0xea, 0xee, 0xff, 0xff, 0x00, 0x00, 0x00, 0x01, 
0x14, 0x00, 0x00, 0x00, 0x1c, 0x00, 0x00, 0x00, 0x1c, 0x00, 0x00, 0x00, 
0x31, 0x00, 0x00, 0x00, 0x3c, 0x00, 0x00, 0x00, 0x02, 0x00, 0x00, 0x00, 
0xff, 0xff, 0xff, 0xff, 0x08, 0x00, 0x00, 0x00, 0x3c, 0xee, 0xff, 0xff, 
0x23, 0x00, 0x00, 0x00, 0x53, 0x74, 0x65, 0x70, 0x5f, 0x4c, 0x53, 0x54, 
0x4d, 0x5f, 0x4d, 0x6f, 0x64, 0x65, 0x6c, 0x5f, 0x31, 0x2f, 0x4c, 0x53, 
0x54, 0x4d, 0x5f, 0x43, 0x65, 0x6c, 0x6c, 0x5f, 0x32, 0x5f, 0x31, 0x2f, 
0x6d, 0x75, 0x6c, 0x00, 0x02, 0x00, 0x00, 0x00, 0x01, 0x00, 0x00, 0x00, 
0x08, 0x00, 0x00, 0x00, 0x4a, 0xef, 0xff, 0xff, 0x00, 0x00, 0x00, 0x01, 
0x14, 0x00, 0x00, 0x00, 0x1c, 0x00, 0x00, 0x00, 0x1c, 0x00, 0x00, 0x00, 
0x30, 0x00, 0x00, 0x00, 0x44, 0x00, 0x00, 0x00, 0x02, 0x00, 0x00, 0x00, 
0xff, 0xff, 0xff, 0xff, 0x08, 0x00, 0x00, 0x00, 0x9c, 0xee, 0xff, 0xff, 
0x29, 0x00, 0x00, 0x00, 0x53, 0x74, 0x65, 0x70, 0x5f, 0x4c, 0x53, 0x54, 
0x4d, 0x5f, 0x4d, 0x6f, 0x64, 0x65, 0x6c, 0x5f, 0x31, 0x2f, 0x4c, 0x53, 
0x54, 0x4d, 0x5f, 0x43, 0x65, 0x6c, 0x6c, 0x5f, 0x32, 0x5f, 0x31, 0x2f, 
0x53, 0x69, 0x67, 0x6d, 0x6f, 0x69, 0x64, 0x5f, 0x31, 0x00, 0x00, 0x00, 
0x02, 0x00, 0x00, 0x00, 0x01, 0x00, 0x00, 0x00, 0x08, 0x00, 0x00, 0x00, 
0xb2, 0xef, 0xff, 0xff, 0x00, 0x00, 0x00, 0x01, 0x14, 0x00, 0x00, 0x00, 
0x1c, 0x00, 0x00, 0x00, 0x1c, 0x00, 0x00, 0x00, 0x2f, 0x00, 0x00, 0x00, 
0x40, 0x00, 0x00, 0x00, 0x02, 0x00, 0x00, 0x00, 0xff, 0xff, 0xff, 0xff, 
0x08, 0x00, 0x00, 0x00, 0x04, 0xef, 0xff, 0xff, 0x27, 0x00, 0x00, 0x00, 
0x53, 0x74, 0x65, 0x70, 0x5f, 0x4c, 0x53, 0x54, 0x4d, 0x5f, 0x4d, 0x6f, 
0x64, 0x65, 0x6c, 0x5f, 0x31, 0x2f, 0x4c, 0x53, 0x54, 0x4d, 0x5f, 0x43, 
0x65, 0x6c, 0x6c, 0x5f, 0x32, 0x5f, 0x31, 0x2f, 0x53, 0x69, 0x67, 0x6d, 
0x6f, 0x69, 0x64, 0x00, 0x02, 0x00, 0x00, 0x00, 0x01, 0x00, 0x00, 0x00, 
0x08, 0x00, 0x00, 0x00, 0x16, 0xf0, 0xff, 0xff, 0x00, 0x00, 0x00, 0x01, 
0x14, 0x00, 0x00, 0x00, 0x1c, 0x00, 0x00, 0x00, 0x1c, 0x00, 0x00, 0x00, 
0x2e, 0x00, 0x00, 0x00, 0x40, 0x00, 0x00, 0x00, 0x02, 0x00, 0x00, 0x00, 
0xff, 0xff, 0xff, 0xff, 0x08, 0x00, 0x00, 0x00, 0x68, 0xef, 0xff, 0xff, 
0x26, 0x00, 0x00, 0x00, 0x53, 0x74, 0x65, 0x70, 0x5f, 0x4c, 0x53, 0x54, 
0x4d, 0x5f, 0x4d, 0x6f, 0x64, 0x65, 0x6c, 0x5f, 0x31, 0x2f, 0x4c, 0x53, 
0x54, 0x4d, 0x5f, 0x43, 0x65, 0x6c, 0x6c, 0x5f, 0x32, 0x5f, 0x31, 0x2f, 
0x73, 0x70, 0x6c, 0x69, 0x74, 0x33, 0x00, 0x00, 0x02, 0x00, 0x00, 0x00, 
0x01, 0x00, 0x00, 0x00, 0x08, 0x00, 0x00, 0x00, 0x7a, 0xf0, 0xff, 0xff, 
0x00, 0x00, 0x00, 0x01, 0x14, 0x00, 0x00, 0x00, 0x1c, 0x00, 0x00, 0x00, 
0x1c, 0x00, 0x00, 0x00, 0x2d, 0x00, 0x00, 0x00, 0x40, 0x00, 0x00, 0x00, 
0x02, 0x00, 0x00, 0x00, 0xff, 0xff, 0xff, 0xff, 0x08, 0x00, 0x00, 0x00, 
0xcc, 0xef, 0xff, 0xff, 0x26, 0x00, 0x00, 0x00, 0x53, 0x74, 0x65, 0x70, 
0x5f, 0x4c, 0x53, 0x54, 0x4d, 0x5f, 0x4d, 0x6f, 0x64, 0x65, 0x6c, 0x5f, 
0x31, 0x2f, 0x4c, 0x53, 0x54, 0x4d, 0x5f, 0x43, 0x65, 0x6c, 0x6c, 0x5f, 
0x32, 0x5f, 0x31, 0x2f, 0x73, 0x70, 0x6c, 0x69, 0x74, 0x32, 0x00, 0x00, 
0x02, 0x00, 0x00, 0x00, 0x01, 0x00, 0x00, 0x00, 0x08, 0x00, 0x00, 0x00, 
0xde, 0xf0, 0xff, 0xff, 0x00, 0x00, 0x00, 0x01, 0x14, 0x00, 0x00, 0x00, 
0x1c, 0x00, 0x00, 0x00, 0x1c, 0x00, 0x00, 0x00, 0x2c, 0x00, 0x00, 0x00, 
0x40, 0x00, 0x00, 0x00, 0x02, 0x00, 0x00, 0x00, 0xff, 0xff, 0xff, 0xff, 
0x08, 0x00, 0x00, 0x00, 0x30, 0xf0, 0xff, 0xff, 0x26, 0x00, 0x00, 0x00, 
0x53, 0x74, 0x65, 0x70, 0x5f, 0x4c, 0x53, 0x54, 0x4d, 0x5f, 0x4d, 0x6f, 
0x64, 0x65, 0x6c, 0x5f, 0x31, 0x2f, 0x4c, 0x53, 0x54, 0x4d, 0x5f, 0x43, 
0x65, 0x6c, 0x6c, 0x5f, 0x32, 0x5f, 0x31, 0x2f, 0x73, 0x70, 0x6c, 0x69, 
0x74, 0x31, 0x00, 0x00, 0x02, 0x00, 0x00, 0x00, 0x01, 0x00, 0x00, 0x00, 
0x08, 0x00, 0x00, 0x00, 0x42, 0xf1, 0xff, 0xff, 0x00, 0x00, 0x00, 0x01, 
0x14, 0x00, 0x00, 0x00, 0x1c, 0x00, 0x00, 0x00, 0x1c, 0x00, 0x00, 0x00, 
0x2b, 0x00, 0x00, 0x00, 0x40, 0x00, 0x00, 0x00, 0x02, 0x00, 0x00, 0x00, 
0xff, 0xff, 0xff, 0xff, 0x08, 0x00, 0x00, 0x00, 0x94, 0xf0, 0xff, 0xff, 
0x25, 0x00, 0x00, 0x00, 0x53, 0x74, 0x65, 0x70, 0x5f, 0x4c, 0x53, 0x54, 
0x4d, 0x5f, 0x4d, 0x6f, 0x64, 0x65, 0x6c, 0x5f, 0x31, 0x2f, 0x4c, 0x53, 
0x54, 0x4d, 0x5f, 0x43, 0x65, 0x6c, 0x6c, 0x5f, 0x32, 0x5f, 0x31, 0x2f, 
0x73, 0x70, 0x6c, 0x69, 0x74, 0x00, 0x00, 0x00, 0x02, 0x00, 0x00, 0x00, 
0x01, 0x00, 0x00, 0x00, 0x08, 0x00, 0x00, 0x00, 0xa6, 0xf1, 0xff, 0xff, 
0x00, 0x00, 0x00, 0x01, 0x14, 0x00, 0x00, 0x00, 0x1c, 0x00, 0x00, 0x00, 
0x1c, 0x00, 0x00, 0x00, 0x2a, 0x00, 0x00, 0x00, 0x40, 0x00, 0x00, 0x00, 
0x02, 0x00, 0x00, 0x00, 0xff, 0xff, 0xff, 0xff, 0x20, 0x00, 0x00, 0x00, 
0xf8, 0xf0, 0xff, 0xff, 0x25, 0x00, 0x00, 0x00, 0x53, 0x74, 0x65, 0x70, 
0x5f, 0x4c, 0x53, 0x54, 0x4d, 0x5f, 0x4d, 0x6f, 0x64, 0x65, 0x6c, 0x5f, 
0x31, 0x2f, 0x4c, 0x53, 0x54, 0x4d, 0x5f, 0x43, 0x65, 0x6c, 0x6c, 0x5f, 
0x32, 0x5f, 0x31, 0x2f, 0x61, 0x64, 0x64, 0x5f, 0x31, 0x00, 0x00, 0x00, 
0x02, 0x00, 0x00, 0x00, 0x01, 0x00, 0x00, 0x00, 0x20, 0x00, 0x00, 0x00, 
0x0a, 0xf2, 0xff, 0xff, 0x00, 0x00, 0x00, 0x01, 0x14, 0x00, 0x00, 0x00, 
0x1c, 0x00, 0x00, 0x00, 0x1c, 0x00, 0x00, 0x00, 0x29, 0x00, 0x00, 0x00, 
0x3c, 0x00, 0x00, 0x00, 0x02, 0x00, 0x00, 0x00, 0xff, 0xff, 0xff, 0xff, 
0x20, 0x00, 0x00, 0x00, 0x5c, 0xf1, 0xff, 0xff, 0x23, 0x00, 0x00, 0x00, 
0x53, 0x74, 0x65, 0x70, 0x5f, 0x4c, 0x53, 0x54, 0x4d, 0x5f, 0x4d, 0x6f, 
0x64, 0x65, 0x6c, 0x5f, 0x31, 0x2f, 0x4c, 0x53, 0x54, 0x4d, 0x5f, 0x43, 
0x65, 0x6c, 0x6c, 0x5f, 0x32, 0x5f, 0x31, 0x2f, 0x61, 0x64, 0x64, 0x00, 
0x02, 0x00, 0x00, 0x00, 0x01, 0x00, 0x00, 0x00, 0x20, 0x00, 0x00, 0x00, 
0x6a, 0xf2, 0xff, 0xff, 0x00, 0x00, 0x00, 0x01, 0x14, 0x00, 0x00, 0x00, 
0x1c, 0x00, 0x00, 0x00, 0x1c, 0x00, 0x00, 0x00, 0x28, 0x00, 0x00, 0x00, 
0x40, 0x00, 0x00, 0x00, 0x02, 0x00, 0x00, 0x00, 0xff, 0xff, 0xff, 0xff, 
0x20, 0x00, 0x00, 0x00, 0xbc, 0xf1, 0xff, 0xff, 0x26, 0x00, 0x00, 0x00, 
0x53, 0x74, 0x65, 0x70, 0x5f, 0x4c, 0x53, 0x54, 0x4d, 0x5f, 0x4d, 0x6f, 
0x64, 0x65, 0x6c, 0x5f, 0x31, 0x2f, 0x4c, 0x53, 0x54, 0x4d, 0x5f, 0x43, 
0x65, 0x6c, 0x6c, 0x5f, 0x32, 0x5f, 0x31, 0x2f, 0x4d, 0x61, 0x74, 0x4d, 
0x75, 0x6c, 0x00, 0x00, 0x02, 0x00, 0x00, 0x00, 0x01, 0x00, 0x00, 0x00, 
0x20, 0x00, 0x00, 0x00, 0xce, 0xf2, 0xff, 0xff, 0x00, 0x00, 0x00, 0x01, 
0x14, 0x00, 0x00, 0x00, 0x1c, 0x00, 0x00, 0x00, 0x1c, 0x00, 0x00, 0x00, 
0x27, 0x00, 0x00, 0x00, 0x44, 0x00, 0x00, 0x00, 0x02, 0x00, 0x00, 0x00, 
0xff, 0xff, 0xff, 0xff, 0x20, 0x00, 0x00, 0x00, 0x20, 0xf2, 0xff, 0xff, 
0x28, 0x00, 0x00, 0x00, 0x53, 0x74, 0x65, 0x70, 0x5f, 0x4c, 0x53, 0x54, 
0x4d, 0x5f, 0x4d, 0x6f, 0x64, 0x65, 0x6c, 0x5f, 0x31, 0x2f, 0x4c, 0x53, 
0x54, 0x4d, 0x5f, 0x43, 0x65, 0x6c, 0x6c, 0x5f, 0x32, 0x5f, 0x31, 0x2f, 
0x4d, 0x61, 0x74, 0x4d, 0x75, 0x6c, 0x5f, 0x31, 0x00, 0x00, 0x00, 0x00, 
0x02, 0x00, 0x00, 0x00, 0x01, 0x00, 0x00, 0x00, 0x20, 0x00, 0x00, 0x00, 
0x36, 0xf3, 0xff, 0xff, 0x00, 0x00, 0x00, 0x01, 0x14, 0x00, 0x00, 0x00, 
0x1c, 0x00, 0x00, 0x00, 0x1c, 0x00, 0x00, 0x00, 0x26, 0x00, 0x00, 0x00, 
0x40, 0x00, 0x00, 0x00, 0x02, 0x00, 0x00, 0x00, 0xff, 0xff, 0xff, 0xff, 
0x10, 0x00, 0x00, 0x00, 0x88, 0xf2, 0xff, 0xff, 0x25, 0x00, 0x00, 0x00, 
0x53, 0x74, 0x65, 0x70, 0x5f, 0x4c, 0x53, 0x54, 0x4d, 0x5f, 0x4d, 0x6f, 
0x64, 0x65, 0x6c, 0x5f, 0x31, 0x2f, 0x4c, 0x53, 0x54, 0x4d, 0x5f, 0x43, 
0x65, 0x6c, 0x6c, 0x5f, 0x31, 0x5f, 0x31, 0x2f, 0x6d, 0x75, 0x6c, 0x5f, 
0x32, 0x00, 0x00, 0x00, 0x02, 0x00, 0x00, 0x00, 0x01, 0x00, 0x00, 0x00, 
0x10, 0x00, 0x00, 0x00, 0x9a, 0xf3, 0xff, 0xff, 0x00, 0x00, 0x00, 0x01, 
0x14, 0x00, 0x00, 0x00, 0x1c, 0x00, 0x00, 0x00, 0x1c, 0x00, 0x00, 0x00, 
0x25, 0x00, 0x00, 0x00, 0x40, 0x00, 0x00, 0x00, 0x02, 0x00, 0x00, 0x00, 
0xff, 0xff, 0xff, 0xff, 0x10, 0x00, 0x00, 0x00, 0xec, 0xf2, 0xff, 0xff, 
0x26, 0x00, 0x00, 0x00, 0x53, 0x74, 0x65, 0x70, 0x5f, 0x4c, 0x53, 0x54, 
0x4d, 0x5f, 0x4d, 0x6f, 0x64, 0x65, 0x6c, 0x5f, 0x31, 0x2f, 0x4c, 0x53, 
0x54, 0x4d, 0x5f, 0x43, 0x65, 0x6c, 0x6c, 0x5f, 0x31, 0x5f, 0x31, 0x2f, 
0x54, 0x61, 0x6e, 0x68, 0x5f, 0x31, 0x00, 0x00, 0x02, 0x00, 0x00, 0x00, 
0x01, 0x00, 0x00, 0x00, 0x10, 0x00, 0x00, 0x00, 0xfe, 0xf3, 0xff, 0xff, 
0x00, 0x00, 0x00, 0x01, 0x14, 0x00, 0x00, 0x00, 0x1c, 0x00, 0x00, 0x00, 
0x1c, 0x00, 0x00, 0x00, 0x24, 0x00, 0x00, 0x00, 0x40, 0x00, 0x00, 0x00, 
0x02, 0x00, 0x00, 0x00, 0xff, 0xff, 0xff, 0xff, 0x10, 0x00, 0x00, 0x00, 
0x50, 0xf3, 0xff, 0xff, 0x25, 0x00, 0x00, 0x00, 0x53, 0x74, 0x65, 0x70, 
0x5f, 0x4c, 0x53, 0x54, 0x4d, 0x5f, 0x4d, 0x6f, 0x64, 0x65, 0x6c, 0x5f, 
0x31, 0x2f, 0x4c, 0x53, 0x54, 0x4d, 0x5f, 0x43, 0x65, 0x6c, 0x6c, 0x5f, 
0x31, 0x5f, 0x31, 0x2f, 0x61, 0x64, 0x64, 0x5f, 0x32, 0x00, 0x00, 0x00, 
0x02, 0x00, 0x00, 0x00, 0x01, 0x00, 0x00, 0x00, 0x10, 0x00, 0x00, 0x00, 
0x62, 0xf4, 0xff, 0xff, 0x00, 0x00, 0x00, 0x01, 0x14, 0x00, 0x00, 0x00, 
0x1c, 0x00, 0x00, 0x00, 0x1c, 0x00, 0x00, 0x00, 0x23, 0x00, 0x00, 0x00, 
0x40, 0x00, 0x00, 0x00, 0x02, 0x00, 0x00, 0x00, 0xff, 0xff, 0xff, 0xff, 
0x10, 0x00, 0x00, 0x00, 0xb4, 0xf3, 0xff, 0xff, 0x25, 0x00, 0x00, 0x00, 
0x53, 0x74, 0x65, 0x70, 0x5f, 0x4c, 0x53, 0x54, 0x4d, 0x5f, 0x4d, 0x6f, 
0x64, 0x65, 0x6c, 0x5f, 0x31, 0x2f, 0x4c, 0x53, 0x54, 0x4d, 0x5f, 0x43, 
0x65, 0x6c, 0x6c, 0x5f, 0x31, 0x5f, 0x31, 0x2f, 0x6d, 0x75, 0x6c, 0x5f, 
0x31, 0x00, 0x00, 0x00, 0x02, 0x00, 0x00, 0x00, 0x01, 0x00, 0x00, 0x00, 
0x10, 0x00, 0x00, 0x00, 0xc6, 0xf4, 0xff, 0xff, 0x00, 0x00, 0x00, 0x01, 
0x14, 0x00, 0x00, 0x00, 0x1c, 0x00, 0x00, 0x00, 0x1c, 0x00, 0x00, 0x00, 
0x22, 0x00, 0x00, 0x00, 0x40, 0x00, 0x00, 0x00, 0x02, 0x00, 0x00, 0x00, 
0xff, 0xff, 0xff, 0xff, 0x10, 0x00, 0x00, 0x00, 0x18, 0xf4, 0xff, 0xff, 
0x24, 0x00, 0x00, 0x00, 0x53, 0x74, 0x65, 0x70, 0x5f, 0x4c, 0x53, 0x54, 
0x4d, 0x5f, 0x4d, 0x6f, 0x64, 0x65, 0x6c, 0x5f, 0x31, 0x2f, 0x4c, 0x53, 
0x54, 0x4d, 0x5f, 0x43, 0x65, 0x6c, 0x6c, 0x5f, 0x31, 0x5f, 0x31, 0x2f, 
0x54, 0x61, 0x6e, 0x68, 0x00, 0x00, 0x00, 0x00, 0x02, 0x00, 0x00, 0x00, 
0x01, 0x00, 0x00, 0x00, 0x10, 0x00, 0x00, 0x00, 0x2a, 0xf5, 0xff, 0xff, 
0x00, 0x00, 0x00, 0x01, 0x14, 0x00, 0x00, 0x00, 0x1c, 0x00, 0x00, 0x00, 
0x1c, 0x00, 0x00, 0x00, 0x21, 0x00, 0x00, 0x00, 0x44, 0x00, 0x00, 0x00, 
0x02, 0x00, 0x00, 0x00, 0xff, 0xff, 0xff, 0xff, 0x10, 0x00, 0x00, 0x00, 
0x7c, 0xf4, 0xff, 0xff, 0x29, 0x00, 0x00, 0x00, 0x53, 0x74, 0x65, 0x70, 
0x5f, 0x4c, 0x53, 0x54, 0x4d, 0x5f, 0x4d, 0x6f, 0x64, 0x65, 0x6c, 0x5f, 
0x31, 0x2f, 0x4c, 0x53, 0x54, 0x4d, 0x5f, 0x43, 0x65, 0x6c, 0x6c, 0x5f, 
0x31, 0x5f, 0x31, 0x2f, 0x53, 0x69, 0x67, 0x6d, 0x6f, 0x69, 0x64, 0x5f, 
0x32, 0x00, 0x00, 0x00, 0x02, 0x00, 0x00, 0x00, 0x01, 0x00, 0x00, 0x00, 
0x10, 0x00, 0x00, 0x00, 0x92, 0xf5, 0xff, 0xff, 0x00, 0x00, 0x00, 0x01, 
0x14, 0x00, 0x00, 0x00, 0x1c, 0x00, 0x00, 0x00, 0x1c, 0x00, 0x00, 0x00, 
0x20, 0x00, 0x00, 0x00, 0x3c, 0x00, 0x00, 0x00, 0x02, 0x00, 0x00, 0x00, 
0xff, 0xff, 0xff, 0xff, 0x10, 0x00, 0x00, 0x00, 0xe4, 0xf4, 0xff, 0xff, 
0x23, 0x00, 0x00, 0x00, 0x53, 0x74, 0x65, 0x70, 0x5f, 0x4c, 0x53, 0x54, 
0x4d, 0x5f, 0x4d, 0x6f, 0x64, 0x65, 0x6c, 0x5f, 0x31, 0x2f, 0x4c, 0x53, 
0x54, 0x4d, 0x5f, 0x43, 0x65, 0x6c, 0x6c, 0x5f, 0x31, 0x5f, 0x31, 0x2f, 
0x6d, 0x75, 0x6c, 0x00, 0x02, 0x00, 0x00, 0x00, 0x01, 0x00, 0x00, 0x00, 
0x10, 0x00, 0x00, 0x00, 0xf2, 0xf5, 0xff, 0xff, 0x00, 0x00, 0x00, 0x01, 
0x14, 0x00, 0x00, 0x00, 0x1c, 0x00, 0x00, 0x00, 0x1c, 0x00, 0x00, 0x00, 
0x1f, 0x00, 0x00, 0x00, 0x44, 0x00, 0x00, 0x00, 0x02, 0x00, 0x00, 0x00, 
0xff, 0xff, 0xff, 0xff, 0x10, 0x00, 0x00, 0x00, 0x44, 0xf5, 0xff, 0xff, 
0x29, 0x00, 0x00, 0x00, 0x53, 0x74, 0x65, 0x70, 0x5f, 0x4c, 0x53, 0x54, 
0x4d, 0x5f, 0x4d, 0x6f, 0x64, 0x65, 0x6c, 0x5f, 0x31, 0x2f, 0x4c, 0x53, 
0x54, 0x4d, 0x5f, 0x43, 0x65, 0x6c, 0x6c, 0x5f, 0x31, 0x5f, 0x31, 0x2f, 
0x53, 0x69, 0x67, 0x6d, 0x6f, 0x69, 0x64, 0x5f, 0x31, 0x00, 0x00, 0x00, 
0x02, 0x00, 0x00, 0x00, 0x01, 0x00, 0x00, 0x00, 0x10, 0x00, 0x00, 0x00, 
0x5a, 0xf6, 0xff, 0xff, 0x00, 0x00, 0x00, 0x01, 0x14, 0x00, 0x00, 0x00, 
0x1c, 0x00, 0x00, 0x00, 0x1c, 0x00, 0x00, 0x00, 0x1e, 0x00, 0x00, 0x00, 
0x40, 0x00, 0x00, 0x00, 0x02, 0x00, 0x00, 0x00, 0xff, 0xff, 0xff, 0xff, 
0x10, 0x00, 0x00, 0x00, 0xac, 0xf5, 0xff, 0xff, 0x27, 0x00, 0x00, 0x00, 
0x53, 0x74, 0x65, 0x70, 0x5f, 0x4c, 0x53, 0x54, 0x4d, 0x5f, 0x4d, 0x6f, 
0x64, 0x65, 0x6c, 0x5f, 0x31, 0x2f, 0x4c, 0x53, 0x54, 0x4d, 0x5f, 0x43, 
0x65, 0x6c, 0x6c, 0x5f, 0x31, 0x5f, 0x31, 0x2f, 0x53, 0x69, 0x67, 0x6d, 
0x6f, 0x69, 0x64, 0x00, 0x02, 0x00, 0x00, 0x00, 0x01, 0x00, 0x00, 0x00, 
0x10, 0x00, 0x00, 0x00, 0xbe, 0xf6, 0xff, 0xff, 0x00, 0x00, 0x00, 0x01, 
0x14, 0x00, 0x00, 0x00, 0x1c, 0x00, 0x00, 0x00, 0x1c, 0x00, 0x00, 0x00, 
0x1d, 0x00, 0x00, 0x00, 0x40, 0x00, 0x00, 0x00, 0x02, 0x00, 0x00, 0x00, 
0xff, 0xff, 0xff, 0xff, 0x10, 0x00, 0x00, 0x00, 0x10, 0xf6, 0xff, 0xff, 
0x26, 0x00, 0x00, 0x00, 0x53, 0x74, 0x65, 0x70, 0x5f, 0x4c, 0x53, 0x54, 
0x4d, 0x5f, 0x4d, 0x6f, 0x64, 0x65, 0x6c, 0x5f, 0x31, 0x2f, 0x4c, 0x53, 
0x54, 0x4d, 0x5f, 0x43, 0x65, 0x6c, 0x6c, 0x5f, 0x31, 0x5f, 0x31, 0x2f, 
0x73, 0x70, 0x6c, 0x69, 0x74, 0x33, 0x00, 0x00, 0x02, 0x00, 0x00, 0x00, 
0x01, 0x00, 0x00, 0x00, 0x10, 0x00, 0x00, 0x00, 0x22, 0xf7, 0xff, 0xff, 
0x00, 0x00, 0x00, 0x01, 0x14, 0x00, 0x00, 0x00, 0x1c, 0x00, 0x00, 0x00, 
0x1c, 0x00, 0x00, 0x00, 0x1c, 0x00, 0x00, 0x00, 0x40, 0x00, 0x00, 0x00, 
0x02, 0x00, 0x00, 0x00, 0xff, 0xff, 0xff, 0xff, 0x10, 0x00, 0x00, 0x00, 
0x74, 0xf6, 0xff, 0xff, 0x26, 0x00, 0x00, 0x00, 0x53, 0x74, 0x65, 0x70, 
0x5f, 0x4c, 0x53, 0x54, 0x4d, 0x5f, 0x4d, 0x6f, 0x64, 0x65, 0x6c, 0x5f, 
0x31, 0x2f, 0x4c, 0x53, 0x54, 0x4d, 0x5f, 0x43, 0x65, 0x6c, 0x6c, 0x5f, 
0x31, 0x5f, 0x31, 0x2f, 0x73, 0x70, 0x6c, 0x69, 0x74, 0x32, 0x00, 0x00, 
0x02, 0x00, 0x00, 0x00, 0x01, 0x00, 0x00, 0x00, 0x10, 0x00, 0x00, 0x00, 
0x86, 0xf7, 0xff, 0xff, 0x00, 0x00, 0x00, 0x01, 0x14, 0x00, 0x00, 0x00, 
0x1c, 0x00, 0x00, 0x00, 0x1c, 0x00, 0x00, 0x00, 0x1b, 0x00, 0x00, 0x00, 
0x40, 0x00, 0x00, 0x00, 0x02, 0x00, 0x00, 0x00, 0xff, 0xff, 0xff, 0xff, 
0x10, 0x00, 0x00, 0x00, 0xd8, 0xf6, 0xff, 0xff, 0x26, 0x00, 0x00, 0x00, 
0x53, 0x74, 0x65, 0x70, 0x5f, 0x4c, 0x53, 0x54, 0x4d, 0x5f, 0x4d, 0x6f, 
0x64, 0x65, 0x6c, 0x5f, 0x31, 0x2f, 0x4c, 0x53, 0x54, 0x4d, 0x5f, 0x43, 
0x65, 0x6c, 0x6c, 0x5f, 0x31, 0x5f, 0x31, 0x2f, 0x73, 0x70, 0x6c, 0x69, 
0x74, 0x31, 0x00, 0x00, 0x02, 0x00, 0x00, 0x00, 0x01, 0x00, 0x00, 0x00, 
0x10, 0x00, 0x00, 0x00, 0xea, 0xf7, 0xff, 0xff, 0x00, 0x00, 0x00, 0x01, 
0x14, 0x00, 0x00, 0x00, 0x1c, 0x00, 0x00, 0x00, 0x1c, 0x00, 0x00, 0x00, 
0x1a, 0x00, 0x00, 0x00, 0x40, 0x00, 0x00, 0x00, 0x02, 0x00, 0x00, 0x00, 
0xff, 0xff, 0xff, 0xff, 0x10, 0x00, 0x00, 0x00, 0x3c, 0xf7, 0xff, 0xff, 
0x25, 0x00, 0x00, 0x00, 0x53, 0x74, 0x65, 0x70, 0x5f, 0x4c, 0x53, 0x54, 
0x4d, 0x5f, 0x4d, 0x6f, 0x64, 0x65, 0x6c, 0x5f, 0x31, 0x2f, 0x4c, 0x53, 
0x54, 0x4d, 0x5f, 0x43, 0x65, 0x6c, 0x6c, 0x5f, 0x31, 0x5f, 0x31, 0x2f, 
0x73, 0x70, 0x6c, 0x69, 0x74, 0x00, 0x00, 0x00, 0x02, 0x00, 0x00, 0x00, 
0x01, 0x00, 0x00, 0x00, 0x10, 0x00, 0x00, 0x00, 0x4e, 0xf8, 0xff, 0xff, 
0x00, 0x00, 0x00, 0x01, 0x14, 0x00, 0x00, 0x00, 0x1c, 0x00, 0x00, 0x00, 
0x1c, 0x00, 0x00, 0x00, 0x19, 0x00, 0x00, 0x00, 0x40, 0x00, 0x00, 0x00, 
0x02, 0x00, 0x00, 0x00, 0xff, 0xff, 0xff, 0xff, 0x40, 0x00, 0x00, 0x00, 
0xa0, 0xf7, 0xff, 0xff, 0x25, 0x00, 0x00, 0x00, 0x53, 0x74, 0x65, 0x70, 
0x5f, 0x4c, 0x53, 0x54, 0x4d, 0x5f, 0x4d, 0x6f, 0x64, 0x65, 0x6c, 0x5f, 
0x31, 0x2f, 0x4c, 0x53, 0x54, 0x4d, 0x5f, 0x43, 0x65, 0x6c, 0x6c, 0x5f, 
0x31, 0x5f, 0x31, 0x2f, 0x61, 0x64, 0x64, 0x5f, 0x31, 0x00, 0x00, 0x00, 
0x02, 0x00, 0x00, 0x00, 0x01, 0x00, 0x00, 0x00, 0x40, 0x00, 0x00, 0x00, 
0xb2, 0xf8, 0xff, 0xff, 0x00, 0x00, 0x00, 0x01, 0x14, 0x00, 0x00, 0x00, 
0x1c, 0x00, 0x00, 0x00, 0x1c, 0x00, 0x00, 0x00, 0x18, 0x00, 0x00, 0x00, 
0x3c, 0x00, 0x00, 0x00, 0x02, 0x00, 0x00, 0x00, 0xff, 0xff, 0xff, 0xff, 
0x40, 0x00, 0x00, 0x00, 0x04, 0xf8, 0xff, 0xff, 0x23, 0x00, 0x00, 0x00, 
0x53, 0x74, 0x65, 0x70, 0x5f, 0x4c, 0x53, 0x54, 0x4d, 0x5f, 0x4d, 0x6f, 
0x64, 0x65, 0x6c, 0x5f, 0x31, 0x2f, 0x4c, 0x53, 0x54, 0x4d, 0x5f, 0x43, 
0x65, 0x6c, 0x6c, 0x5f, 0x31, 0x5f, 0x31, 0x2f, 0x61, 0x64, 0x64, 0x00, 
0x02, 0x00, 0x00, 0x00, 0x01, 0x00, 0x00, 0x00, 0x40, 0x00, 0x00, 0x00, 
0x12, 0xf9, 0xff, 0xff, 0x00, 0x00, 0x00, 0x01, 0x14, 0x00, 0x00, 0x00, 
0x1c, 0x00, 0x00, 0x00, 0x1c, 0x00, 0x00, 0x00, 0x17, 0x00, 0x00, 0x00, 
0x40, 0x00, 0x00, 0x00, 0x02, 0x00, 0x00, 0x00, 0xff, 0xff, 0xff, 0xff, 
0x40, 0x00, 0x00, 0x00, 0x64, 0xf8, 0xff, 0xff, 0x26, 0x00, 0x00, 0x00, 
0x53, 0x74, 0x65, 0x70, 0x5f, 0x4c, 0x53, 0x54, 0x4d, 0x5f, 0x4d, 0x6f, 
0x64, 0x65, 0x6c, 0x5f, 0x31, 0x2f, 0x4c, 0x53, 0x54, 0x4d, 0x5f, 0x43, 
0x65, 0x6c, 0x6c, 0x5f, 0x31, 0x5f, 0x31, 0x2f, 0x4d, 0x61, 0x74, 0x4d, 
0x75, 0x6c, 0x00, 0x00, 0x02, 0x00, 0x00, 0x00, 0x01, 0x00, 0x00, 0x00, 
0x40, 0x00, 0x00, 0x00, 0x76, 0xf9, 0xff, 0xff, 0x00, 0x00, 0x00, 0x01, 
0x14, 0x00, 0x00, 0x00, 0x1c, 0x00, 0x00, 0x00, 0x1c, 0x00, 0x00, 0x00, 
0x16, 0x00, 0x00, 0x00, 0x44, 0x00, 0x00, 0x00, 0x02, 0x00, 0x00, 0x00, 
0xff, 0xff, 0xff, 0xff, 0x40, 0x00, 0x00, 0x00, 0xc8, 0xf8, 0xff, 0xff, 
0x28, 0x00, 0x00, 0x00, 0x53, 0x74, 0x65, 0x70, 0x5f, 0x4c, 0x53, 0x54, 
0x4d, 0x5f, 0x4d, 0x6f, 0x64, 0x65, 0x6c, 0x5f, 0x31, 0x2f, 0x4c, 0x53, 
0x54, 0x4d, 0x5f, 0x43, 0x65, 0x6c, 0x6c, 0x5f, 0x31, 0x5f, 0x31, 0x2f, 
0x4d, 0x61, 0x74, 0x4d, 0x75, 0x6c, 0x5f, 0x31, 0x00, 0x00, 0x00, 0x00, 
0x02, 0x00, 0x00, 0x00, 0x01, 0x00, 0x00, 0x00, 0x40, 0x00, 0x00, 0x00, 
0xde, 0xf9, 0xff, 0xff, 0x00, 0x00, 0x00, 0x01, 0x14, 0x00, 0x00, 0x00, 
0x1c, 0x00, 0x00, 0x00, 0x1c, 0x00, 0x00, 0x00, 0x15, 0x00, 0x00, 0x00, 
0x40, 0x00, 0x00, 0x00, 0x02, 0x00, 0x00, 0x00, 0xff, 0xff, 0xff, 0xff, 
0x03, 0x00, 0x00, 0x00, 0x30, 0xf9, 0xff, 0xff, 0x25, 0x00, 0x00, 0x00, 
0x53, 0x74, 0x65, 0x70, 0x5f, 0x4c, 0x53, 0x54, 0x4d, 0x5f, 0x4d, 0x6f, 
0x64, 0x65, 0x6c, 0x5f, 0x31, 0x2f, 0x53, 0x6c, 0x69, 0x63, 0x65, 0x5f, 
0x49, 0x6e, 0x70, 0x75, 0x74, 0x5f, 0x31, 0x2f, 0x53, 0x6c, 0x69, 0x63, 
0x65, 0x00, 0x00, 0x00, 0x02, 0x00, 0x00, 0x00, 0x01, 0x00, 0x00, 0x00, 
0x03, 0x00, 0x00, 0x00, 0x42, 0xfa, 0xff, 0xff, 0x00, 0x00, 0x00, 0x01, 
0x14, 0x00, 0x00, 0x00, 0x1c, 0x00, 0x00, 0x00, 0x1c, 0x00, 0x00, 0x00, 
0x14, 0x00, 0x00, 0x00, 0x44, 0x00, 0x00, 0x00, 0x02, 0x00, 0x00, 0x00, 
0xff, 0xff, 0xff, 0xff, 0x08, 0x00, 0x00, 0x00, 0x94, 0xf9, 0xff, 0xff, 
0x28, 0x00, 0x00, 0x00, 0x53, 0x74, 0x65, 0x70, 0x5f, 0x4c, 0x53, 0x54, 
0x4d, 0x5f, 0x4d, 0x6f, 0x64, 0x65, 0x6c, 0x5f, 0x31, 0x2f, 0x53, 0x6c, 
0x69, 0x63, 0x65, 0x5f, 0x48, 0x69, 0x64, 0x64, 0x65, 0x6e, 0x5f, 0x32, 
0x5f, 0x31, 0x2f, 0x53, 0x6c, 0x69, 0x63, 0x65, 0x00, 0x00, 0x00, 0x00, 
0x02, 0x00, 0x00, 0x00, 0x01, 0x00, 0x00, 0x00, 0x08, 0x00, 0x00, 0x00, 
0xaa, 0xfa, 0xff, 0xff, 0x00, 0x00, 0x00, 0x01, 0x14, 0x00, 0x00, 0x00, 
0x1c, 0x00, 0x00, 0x00, 0x1c, 0x00, 0x00, 0x00, 0x13, 0x00, 0x00, 0x00, 
0x44, 0x00, 0x00, 0x00, 0x02, 0x00, 0x00, 0x00, 0xff, 0xff, 0xff, 0xff, 
0x10, 0x00, 0x00, 0x00, 0xfc, 0xf9, 0xff, 0xff, 0x28, 0x00, 0x00, 0x00, 
0x53, 0x74, 0x65, 0x70, 0x5f, 0x4c, 0x53, 0x54, 0x4d, 0x5f, 0x4d, 0x6f, 
0x64, 0x65, 0x6c, 0x5f, 0x31, 0x2f, 0x53, 0x6c, 0x69, 0x63, 0x65, 0x5f, 
0x48, 0x69, 0x64, 0x64, 0x65, 0x6e, 0x5f, 0x31, 0x5f, 0x31, 0x2f, 0x53, 
0x6c, 0x69, 0x63, 0x65, 0x00, 0x00, 0x00, 0x00, 0x02, 0x00, 0x00, 0x00, 
0x01, 0x00, 0x00, 0x00, 0x10, 0x00, 0x00, 0x00, 0x12, 0xfb, 0xff, 0xff, 
0x00, 0x00, 0x00, 0x01, 0x14, 0x00, 0x00, 0x00, 0x1c, 0x00, 0x00, 0x00, 
0x1c, 0x00, 0x00, 0x00, 0x12, 0x00, 0x00, 0x00, 0x40, 0x00, 0x00, 0x00, 
0x02, 0x00, 0x00, 0x00, 0xff, 0xff, 0xff, 0xff, 0x08, 0x00, 0x00, 0x00, 
0x64, 0xfa, 0xff, 0xff, 0x26, 0x00, 0x00, 0x00, 0x53, 0x74, 0x65, 0x70, 
0x5f, 0x4c, 0x53, 0x54, 0x4d, 0x5f, 0x4d, 0x6f, 0x64, 0x65, 0x6c, 0x5f, 
0x31, 0x2f, 0x53, 0x6c, 0x69, 0x63, 0x65, 0x5f, 0x43, 0x65, 0x6c, 0x6c, 
0x5f, 0x32, 0x5f, 0x31, 0x2f, 0x53, 0x6c, 0x69, 0x63, 0x65, 0x00, 0x00, 
0x02, 0x00, 0x00, 0x00, 0x01, 0x00, 0x00, 0x00, 0x08, 0x00, 0x00, 0x00, 
0x76, 0xfb, 0xff, 0xff, 0x00, 0x00, 0x00, 0x01, 0x14, 0x00, 0x00, 0x00, 
0x1c, 0x00, 0x00, 0x00, 0x1c, 0x00, 0x00, 0x00, 0x11, 0x00, 0x00, 0x00, 
0x40, 0x00, 0x00, 0x00, 0x02, 0x00, 0x00, 0x00, 0xff, 0xff, 0xff, 0xff, 
0x10, 0x00, 0x00, 0x00, 0xc8, 0xfa, 0xff, 0xff, 0x26, 0x00, 0x00, 0x00, 
0x53, 0x74, 0x65, 0x70, 0x5f, 0x4c, 0x53, 0x54, 0x4d, 0x5f, 0x4d, 0x6f, 
0x64, 0x65, 0x6c, 0x5f, 0x31, 0x2f, 0x53, 0x6c, 0x69, 0x63, 0x65, 0x5f, 
0x43, 0x65, 0x6c, 0x6c, 0x5f, 0x31, 0x5f, 0x31, 0x2f, 0x53, 0x6c, 0x69, 
0x63, 0x65, 0x00, 0x00, 0x02, 0x00, 0x00, 0x00, 0x01, 0x00, 0x00, 0x00, 
0x10, 0x00, 0x00, 0x00, 0xde, 0xfd, 0xff, 0xff, 0x00, 0x00, 0x00, 0x01, 
0x14, 0x00, 0x00, 0x00, 0x14, 0x00, 0x00, 0x00, 0x10, 0x00, 0x00, 0x00, 
0x00, 0x00, 0x00, 0x02, 0x38, 0x00, 0x00, 0x00, 0x20, 0xfb, 0xff, 0xff, 
0x2a, 0x00, 0x00, 0x00, 0x53, 0x74, 0x65, 0x70, 0x5f, 0x4c, 0x53, 0x54, 
0x4d, 0x5f, 0x4d, 0x6f, 0x64, 0x65, 0x6c, 0x5f, 0x31, 0x2f, 0x53, 0x6c, 
0x69, 0x63, 0x65, 0x5f, 0x49, 0x6e, 0x70, 0x75, 0x74, 0x5f, 0x31, 0x2f, 
0x53, 0x6c, 0x69, 0x63, 0x65, 0x2f, 0x73, 0x69, 0x7a, 0x65, 0x00, 0x00, 
0x01, 0x00, 0x00, 0x00, 0x02, 0x00, 0x00, 0x00, 0x36, 0xfe, 0xff, 0xff, 
0x00, 0x00, 0x00, 0x01, 0x14, 0x00, 0x00, 0x00, 0x14, 0x00, 0x00, 0x00, 
0x0f, 0x00, 0x00, 0x00, 0x00, 0x00, 0x00, 0x02, 0x38, 0x00, 0x00, 0x00, 
0x78, 0xfb, 0xff, 0xff, 0x2b, 0x00, 0x00, 0x00, 0x53, 0x74, 0x65, 0x70, 
0x5f, 0x4c, 0x53, 0x54, 0x4d, 0x5f, 0x4d, 0x6f, 0x64, 0x65, 0x6c, 0x5f, 
0x31, 0x2f, 0x53, 0x6c, 0x69, 0x63, 0x65, 0x5f, 0x49, 0x6e, 0x70, 0x75, 
0x74, 0x5f, 0x31, 0x2f, 0x53, 0x6c, 0x69, 0x63, 0x65, 0x2f, 0x62, 0x65, 
0x67, 0x69, 0x6e, 0x00, 0x01, 0x00, 0x00, 0x00, 0x02, 0x00, 0x00, 0x00, 
0x8e, 0xfe, 0xff, 0xff, 0x00, 0x00, 0x00, 0x01, 0x14, 0x00, 0x00, 0x00, 
0x14, 0x00, 0x00, 0x00, 0x0e, 0x00, 0x00, 0x00, 0x00, 0x00, 0x00, 0x02, 
0x3c, 0x00, 0x00, 0x00, 0xd0, 0xfb, 0xff, 0xff, 0x2e, 0x00, 0x00, 0x00, 
0x53, 0x74, 0x65, 0x70, 0x5f, 0x4c, 0x53, 0x54, 0x4d, 0x5f, 0x4d, 0x6f, 
0x64, 0x65, 0x6c, 0x5f, 0x31, 0x2f, 0x53, 0x6c, 0x69, 0x63, 0x65, 0x5f, 
0x48, 0x69, 0x64, 0x64, 0x65, 0x6e, 0x5f, 0x31, 0x5f, 0x31, 0x2f, 0x53, 
0x6c, 0x69, 0x63, 0x65, 0x2f, 0x62, 0x65, 0x67, 0x69, 0x6e, 0x00, 0x00, 
0x01, 0x00, 0x00, 0x00, 0x02, 0x00, 0x00, 0x00, 0xea, 0xfe, 0xff, 0xff, 
0x00, 0x00, 0x00, 0x01, 0x14, 0x00, 0x00, 0x00, 0x14, 0x00, 0x00, 0x00, 
0x0d, 0x00, 0x00, 0x00, 0x00, 0x00, 0x00, 0x02, 0x20, 0x00, 0x00, 0x00, 
0x2c, 0xfc, 0xff, 0xff, 0x10, 0x00, 0x00, 0x00, 0x61, 0x72, 0x69, 0x74, 
0x68, 0x2e, 0x63, 0x6f, 0x6e, 0x73, 0x74, 0x61, 0x6e, 0x74, 0x31, 0x30, 
0x00, 0x00, 0x00, 0x00, 0x01, 0x00, 0x00, 0x00, 0x02, 0x00, 0x00, 0x00, 
0x2a, 0xff, 0xff, 0xff, 0x00, 0x00, 0x00, 0x01, 0x14, 0x00, 0x00, 0x00, 
0x14, 0x00, 0x00, 0x00, 0x0c, 0x00, 0x00, 0x00, 0x00, 0x00, 0x00, 0x02, 
0x3c, 0x00, 0x00, 0x00, 0x6c, 0xfc, 0xff, 0xff, 0x2c, 0x00, 0x00, 0x00, 
0x53, 0x74, 0x65, 0x70, 0x5f, 0x4c, 0x53, 0x54, 0x4d, 0x5f, 0x4d, 0x6f, 
0x64, 0x65, 0x6c, 0x5f, 0x31, 0x2f, 0x53, 0x6c, 0x69, 0x63, 0x65, 0x5f, 
0x43, 0x65, 0x6c, 0x6c, 0x5f, 0x32, 0x5f, 0x31, 0x2f, 0x53, 0x6c, 0x69, 
0x63, 0x65, 0x2f, 0x62, 0x65, 0x67, 0x69, 0x6e, 0x00, 0x00, 0x00, 0x00, 
0x01, 0x00, 0x00, 0x00, 0x02, 0x00, 0x00, 0x00, 0x86, 0xff, 0xff, 0xff, 
0x00, 0x00, 0x00, 0x01, 0x14, 0x00, 0x00, 0x00, 0x14, 0x00, 0x00, 0x00, 
0x0b, 0x00, 0x00, 0x00, 0x00, 0x00, 0x00, 0x02, 0x1c, 0x00, 0x00, 0x00, 
0xc8, 0xfc, 0xff, 0xff, 0x0f, 0x00, 0x00, 0x00, 0x61, 0x72, 0x69, 0x74, 
0x68, 0x2e, 0x63, 0x6f, 0x6e, 0x73, 0x74, 0x61, 0x6e, 0x74, 0x39, 0x00, 
0x01, 0x00, 0x00, 0x00, 0x02, 0x00, 0x00, 0x00, 0xc2, 0xff, 0xff, 0xff, 
0x00, 0x00, 0x00, 0x01, 0x14, 0x00, 0x00, 0x00, 0x14, 0x00, 0x00, 0x00, 
0x0a, 0x00, 0x00, 0x00, 0x00, 0x00, 0x00, 0x02, 0x1c, 0x00, 0x00, 0x00, 
0x04, 0xfd, 0xff, 0xff, 0x0f, 0x00, 0x00, 0x00, 0x61, 0x72, 0x69, 0x74, 
0x68, 0x2e, 0x63, 0x6f, 0x6e, 0x73, 0x74, 0x61, 0x6e, 0x74, 0x38, 0x00, 
0x01, 0x00, 0x00, 0x00, 0x02, 0x00, 0x00, 0x00, 0x00, 0x00, 0x16, 0x00, 
0x1c, 0x00, 0x18, 0x00, 0x17, 0x00, 0x10, 0x00, 0x0c, 0x00, 0x08, 0x00, 
0x00, 0x00, 0x00, 0x00, 0x00, 0x00, 0x07, 0x00, 0x16, 0x00, 0x00, 0x00, 
0x00, 0x00, 0x00, 0x01, 0x14, 0x00, 0x00, 0x00, 0x14, 0x00, 0x00, 0x00, 
0x09, 0x00, 0x00, 0x00, 0x00, 0x00, 0x00, 0x02, 0x1c, 0x00, 0x00, 0x00, 
0x58, 0xfd, 0xff, 0xff, 0x0f, 0x00, 0x00, 0x00, 0x61, 0x72, 0x69, 0x74, 
0x68, 0x2e, 0x63, 0x6f, 0x6e, 0x73, 0x74, 0x61, 0x6e, 0x74, 0x37, 0x00, 
0x00, 0x00, 0x00, 0x00, 0x9e, 0xfe, 0xff, 0xff, 0x00, 0x00, 0x00, 0x01, 
0x10, 0x00, 0x00, 0x00, 0x10, 0x00, 0x00, 0x00, 0x08, 0x00, 0x00, 0x00, 
0x1c, 0x00, 0x00, 0x00, 0x8c, 0xfd, 0xff, 0xff, 0x0f, 0x00, 0x00, 0x00, 
0x61, 0x72, 0x69, 0x74, 0x68, 0x2e, 0x63, 0x6f, 0x6e, 0x73, 0x74, 0x61, 
0x6e, 0x74, 0x36, 0x00, 0x01, 0x00, 0x00, 0x00, 0x40, 0x00, 0x00, 0x00, 
0xd6, 0xfe, 0xff, 0xff, 0x00, 0x00, 0x00, 0x01, 0x10, 0x00, 0x00, 0x00, 
0x10, 0x00, 0x00, 0x00, 0x07, 0x00, 0x00, 0x00, 0x1c, 0x00, 0x00, 0x00, 
0xc4, 0xfd, 0xff, 0xff, 0x0f, 0x00, 0x00, 0x00, 0x61, 0x72, 0x69, 0x74, 
0x68, 0x2e, 0x63, 0x6f, 0x6e, 0x73, 0x74, 0x61, 0x6e, 0x74, 0x35, 0x00, 
0x01, 0x00, 0x00, 0x00, 0x20, 0x00, 0x00, 0x00, 0x0e, 0xff, 0xff, 0xff, 
0x00, 0x00, 0x00, 0x01, 0x10, 0x00, 0x00, 0x00, 0x10, 0x00, 0x00, 0x00, 
0x06, 0x00, 0x00, 0x00, 0x1c, 0x00, 0x00, 0x00, 0xfc, 0xfd, 0xff, 0xff, 
0x0f, 0x00, 0x00, 0x00, 0x61, 0x72, 0x69, 0x74, 0x68, 0x2e, 0x63, 0x6f, 
0x6e, 0x73, 0x74, 0x61, 0x6e, 0x74, 0x34, 0x00, 0x02, 0x00, 0x00, 0x00, 
